TRT-101303-EntropyCalibration2
/distilbert/transformer/layer.5/attention/q_lin/Add_output_0: 3d450b4a
distilbert.transformer.layer.4.output_layer_norm.bias_output: 3b4fe8d8
/distilbert/transformer/layer.4/sa_layer_norm/ReduceMean_output_0: 39c1e4ba
/distilbert/transformer/layer.4/attention/out_lin/Add_output_0: 3d55f5e5
/distilbert/embeddings/word_embeddings/Gather_output_0: 3acb2ad1
/distilbert/transformer/layer.5/ffn/lin2/MatMul_output_0: 3cd08be6
ONNXTRT_Broadcast_586_output: 3c010a14
/distilbert/transformer/layer.4/sa_layer_norm/Mul_output_0: 3de79f4a
distilbert.transformer.layer.4.sa_layer_norm.weight_output: 3c10ec05
ONNXTRT_Broadcast_603_output: 3816aeff
/distilbert/transformer/layer.3/attention/Reshape_3_output_0: 3cbc3bc8
distilbert.transformer.layer.4.ffn.lin1.bias_output: 3b3aa4d9
/distilbert/transformer/layer.5/attention/q_lin/MatMul_output_0: 3d46b241
/distilbert/transformer/layer.3/sa_layer_norm/ReduceMean_output_0: 39a042ac
/Relu_output_0: 3c9dce19
ONNXTRT_Broadcast_490_output: 3b8a3aa5
/distilbert/transformer/layer.4/ffn/lin1/MatMul_output_0: 3e2729cc
ONNXTRT_Broadcast_594_output: 3c810a14
/distilbert/transformer/layer.4/ffn/lin1/Add_output_0: 3e298c80
/distilbert/transformer/layer.5/ffn/activation/Constant_2_output_0_output: 3b810a14
onnx::MatMul_940_output: 3b8a3aa5
pre_classifier.weight_output: 3a48b844
/distilbert/transformer/layer.5/ffn/activation/Constant_output_0_output: 3c367d3d
ONNXTRT_Broadcast_496_output: 3c010a14
/distilbert/transformer/layer.4/sa_layer_norm/Div_output_0: 3e10b126
/distilbert/transformer/layer.4/sa_layer_norm/Sqrt_output_0: 3c97eacc
/distilbert/transformer/layer.5/output_layer_norm/Add_1_output_0: 3d116194
ONNXTRT_Broadcast_514_output: 3bddf0bd
/distilbert/transformer/layer.4/sa_layer_norm/Add_output_0: 3d3432db
ONNXTRT_Broadcast_484_output: 280de15b
distilbert.transformer.layer.4.sa_layer_norm.bias_output: 3b5ea896
distilbert.transformer.layer.4.output_layer_norm.weight_output: 3be3749c
/distilbert/transformer/layer.3/Add_output_0: 3e010f92
/distilbert/transformer/layer.4/sa_layer_norm/Constant_1_output_0_output: 280de15b
/distilbert/transformer/layer.4/sa_layer_norm/Add_1_output_0: 3dedaf6e
/distilbert/transformer/layer.4/sa_layer_norm/ReduceMean_1_output_0: 3d3432db
/distilbert/embeddings/position_embeddings/Gather_output_0: 3abc8370
/distilbert/embeddings/Add_output_0: 3b2b7d91
/distilbert/embeddings/LayerNorm/ReduceMean_output_0: 3960497c
/distilbert/embeddings/LayerNorm/Sub_output_0: 3b4399d6
/distilbert/embeddings/LayerNorm/Constant_output_0_output: 3c810a14
ONNXTRT_Broadcast_output: 3c810a14
/distilbert/embeddings/LayerNorm/Pow_output_0: 3b117187
/distilbert/embeddings/LayerNorm/ReduceMean_1_output_0: 3795cff7
/distilbert/embeddings/LayerNorm/Constant_1_output_0_output: 280de15b
ONNXTRT_Broadcast_31_output: 280de15b
/distilbert/embeddings/LayerNorm/Add_output_0: 3795cff7
/distilbert/embeddings/LayerNorm/Sqrt_output_0: 39c3fb52
/distilbert/embeddings/LayerNorm/Div_output_0: 3d8f8e9d
distilbert.embeddings.LayerNorm.weight_output: 3be8af67
ONNXTRT_Broadcast_33_output: 3be8af67
/distilbert/embeddings/LayerNorm/Mul_output_0: 3c8df745
distilbert.embeddings.LayerNorm.bias_output: 3b4c6990
ONNXTRT_Broadcast_35_output: 3b4c6990
/distilbert/embeddings/LayerNorm/Add_1_output_0: 3c8afc89
ONNXTRT_Broadcast_517_output: 3b0a5fae
ONNXTRT_Broadcast_480_output: 3ac4c0ba
distilbert.transformer.layer.5.output_layer_norm.bias_output: 3aaf1898
distilbert.transformer.layer.4.attention.out_lin.bias_output: 3ac4c0ba
/distilbert/transformer/layer.4/attention/Reshape_3_output_0: 3d063623
/distilbert/transformer/layer.3/sa_layer_norm/ReduceMean_1_output_0: 3caffe70
onnx::MatMul_939_output: 3b2b23f7
/distilbert/transformer/layer.5/attention/v_lin/Add_output_0: 3d55f9d2
ONNXTRT_Broadcast_512_output: 3b3ca8bc
/distilbert/transformer/layer.4/output_layer_norm/Mul_output_0: 3df27ae8
/distilbert/transformer/layer.4/ffn/lin2/Add_output_0: 3f5c309b
ONNXTRT_Broadcast_478_output: 3b2b23f7
distilbert.transformer.layer.5.output_layer_norm.weight_output: 3bc170ca
/distilbert/transformer/layer.4/Add_1_output_0: 3f5f89a9
/distilbert/transformer/layer.5/output_layer_norm/Constant_1_output_0_output: 280de15b
/distilbert/transformer/layer.5/attention/Reshape_output_0: 3d450b4a
/distilbert/transformer/layer.5/output_layer_norm/Pow_output_0: 3f836aa2
onnx::MatMul_952_output: 3b0a5fae
classifier.weight_output: 3a14decd
ONNXTRT_Broadcast_498_output: 3b810a14
/distilbert/transformer/layer.4/ffn/activation/Constant_output_0_output: 3c367d3d
onnx::MatMul_956_output: 3b0b62c6
ONNXTRT_Broadcast_560_output: 3b367d3d
/distilbert/transformer/layer.5/Add_1_output_0: 3e3e048f
ONNXTRT_Broadcast_406_output: 3c010a14
/distilbert/transformer/layer.3/sa_layer_norm/Sub_output_0: 3e02283a
/distilbert/transformer/layer.4/attention/out_lin/MatMul_output_0: 3d6d8fce
ONNXTRT_Broadcast_506_output: 280de15b
/distilbert/transformer/layer.4/attention/Transpose_3_output_0: 3d063623
/distilbert/transformer/layer.4/attention/MatMul_1_output_0: 3d063623
ONNXTRT_Broadcast_574_output: 280de15b
/distilbert/transformer/layer.4/ffn/lin2/MatMul_output_0: 3f5331e3
/distilbert/transformer/layer.5/attention/out_lin/MatMul_output_0: 3dc34948
/distilbert/transformer/layer.5/attention/k_lin/MatMul_output_0: 3d3d179b
/distilbert/transformer/layer.5/sa_layer_norm/Sqrt_output_0: 3cc34dcb
/distilbert/transformer/layer.4/sa_layer_norm/Pow_output_0: 3f1eedb2
ONNXTRT_Broadcast_482_output: 3c810a14
distilbert.transformer.layer.5.ffn.lin2.bias_output: 3ac0c4a1
/distilbert/transformer/layer.4/sa_layer_norm/Constant_output_0_output: 3c810a14
/distilbert/transformer/layer.4/sa_layer_norm/Sub_output_0: 3e2b92ef
/distilbert/Cast_output_0: 3c010a14
/distilbert/Constant_11_output_0_output: 3c010a14
ONNXTRT_Broadcast_58_output: 3c010a14
/distilbert/Sub_output_0: 3c010a14
/distilbert/Where_1_output_0: 7f800000
/distilbert/transformer/layer.4/attention/MatMul_output_0: 3dd1d661
ONNXTRT_Broadcast_472_output: 3b367d3d
onnx::MatMul_958_output: 3ad31c4b
/distilbert/transformer/layer.4/attention/Sqrt_2_output_0: 3b367d3d
onnx::MatMul_857_output: 3b2efea2
ONNXTRT_Broadcast_62_output: 3b2efea2
/distilbert/transformer/layer.0/attention/q_lin/MatMul_output_0: 3d16241b
distilbert.transformer.layer.0.attention.q_lin.bias_output: 3c0582f0
ONNXTRT_Broadcast_64_output: 3c0582f0
/distilbert/transformer/layer.0/attention/q_lin/Add_output_0: 3d09aa5e
/distilbert/transformer/layer.4/output_layer_norm/ReduceMean_1_output_0: 40274912
/distilbert/transformer/layer.4/attention/Mul_output_0: 3ca24b57
/distilbert/transformer/layer.4/attention/Softmax_output: 3c00a69c
/distilbert/transformer/layer.4/attention/Add_output_0: 7f800000
/distilbert/transformer/layer.5/ffn/activation/Mul_output_0: 3d336107
ONNXTRT_Broadcast_470_output: 3b367d3d
ONNXTRT_Broadcast_394_output: 280de15b
/distilbert/transformer/layer.4/attention/Div_output_0: 3a810a14
/distilbert/transformer/layer.4/attention/Sqrt_1_output_0: 3b367d3d
/distilbert/transformer/layer.4/attention/Transpose_2_output_0: 3d399d6e
/distilbert/transformer/layer.4/attention/Constant_12_output_0_output: 3c010a14
/distilbert/transformer/layer.5/ffn/activation/Add_output_0: 3c810a14
ONNXTRT_Broadcast_388_output: 3b1045bf
ONNXTRT_Broadcast_584_output: 3c367d3d
/distilbert/transformer/layer.5/attention/Transpose_3_output_0: 3d1a6132
/distilbert/transformer/layer.5/output_layer_norm/Sqrt_output_0: 3c38b2d3
ONNXTRT_Broadcast_519_output: 39258e83
/distilbert/transformer/layer.0/attention/Reshape_output_0: 3d09aa5e
/distilbert/transformer/layer.0/attention/Transpose_output_0: 3d09aa5e
onnx::MatMul_867_output: 3b563ef5
ONNXTRT_Broadcast_67_output: 3b563ef5
/distilbert/transformer/layer.0/attention/k_lin/MatMul_output_0: 3d2b6811
distilbert.transformer.layer.0.attention.k_lin.bias_output: 38b91a05
ONNXTRT_Broadcast_69_output: 38b91a05
/distilbert/transformer/layer.0/attention/k_lin/Add_output_0: 3d260946
/distilbert/transformer/layer.0/attention/Reshape_1_output_0: 3d260946
onnx::MatMul_868_output: 3ab727a2
ONNXTRT_Broadcast_72_output: 3ab727a2
/distilbert/transformer/layer.0/attention/v_lin/MatMul_output_0: 3d1e76fa
distilbert.transformer.layer.0.attention.v_lin.bias_output: 3b3ff0ba
ONNXTRT_Broadcast_74_output: 3b3ff0ba
/distilbert/transformer/layer.0/attention/v_lin/Add_output_0: 3cf751ba
/distilbert/transformer/layer.0/attention/Reshape_2_output_0: 3cf751ba
/distilbert/transformer/layer.0/attention/Transpose_1_output_0: 3cf751ba
/distilbert/transformer/layer.5/ffn/activation/Constant_1_output_0_output: 3c010a14
ONNXTRT_Broadcast_486_output: 3c10ec05
/distilbert/transformer/layer.4/ffn/activation/Div_output_0: 3defc73c
/distilbert/transformer/layer.5/ffn/activation/Div_output_0: 3d94ac15
ONNXTRT_Broadcast_592_output: 3ac0c4a1
/distilbert/transformer/layer.4/output_layer_norm/Add_output_0: 40274912
/distilbert/transformer/layer.3/sa_layer_norm/Div_output_0: 3e19f48c
/distilbert/transformer/layer.4/ffn/activation/Mul_1_output_0: 3d909397
/distilbert/transformer/layer.3/sa_layer_norm/Pow_output_0: 3ebcb028
/distilbert/transformer/layer.4/ffn/activation/Constant_1_output_0_output: 3c010a14
/classifier/Gemm_output: 3d2054b2
/pre_classifier/Gemm_output: 3c98dca9
distilbert.transformer.layer.3.attention.out_lin.bias_output: 3aa79b19
ONNXTRT_Broadcast_582_output: 3b599135
/distilbert/transformer/layer.5/attention/Sqrt_output_0: 3d810a14
/distilbert/transformer/layer.5/sa_layer_norm/Mul_output_0: 3e0d4106
/distilbert/transformer/layer.3/attention/Add_output_0: 7f800000
/distilbert/transformer/layer.3/attention/out_lin/MatMul_output_0: 3d2f8f1a
ONNXTRT_Broadcast_580_output: 3af3d583
ONNXTRT_Broadcast_504_output: 3c810a14
/distilbert/transformer/layer.4/ffn/activation/Constant_2_output_0_output: 3b810a14
/distilbert/transformer/layer.3/sa_layer_norm/Mul_output_0: 3e006fd8
/distilbert/transformer/layer.5/output_layer_norm/ReduceMean_1_output_0: 3c842db4
/distilbert/transformer/layer.5/output_layer_norm/ReduceMean_output_0: 3a21f76f
distilbert.transformer.layer.5.sa_layer_norm.weight_output: 3c233f91
ONNXTRT_Broadcast_392_output: 3c810a14
/distilbert/transformer/layer.3/sa_layer_norm/Sqrt_output_0: 3c5bf2eb
/distilbert/transformer/layer.4/ffn/activation/Add_output_0: 3c810a14
/distilbert/transformer/layer.5/sa_layer_norm/ReduceMean_output_0: 3a32a8fd
/distilbert/transformer/layer.0/attention/Cast_output_0: 3f010a14
/distilbert/transformer/layer.0/attention/Sqrt_output_0: 3d810a14
/distilbert/transformer/layer.0/attention/Constant_12_output_0_output: 3c010a14
/distilbert/transformer/layer.0/attention/Div_output_0: 3a810a14
/distilbert/transformer/layer.0/attention/Cast_1_output_0: 3a810a14
/distilbert/transformer/layer.0/attention/Transpose_2_output_0: 3d260946
/distilbert/transformer/layer.0/attention/Sqrt_1_output_0: 3b367d3d
ONNXTRT_Broadcast_110_output: 3b367d3d
/distilbert/transformer/layer.0/attention/Mul_output_0: 3c42b03b
/distilbert/transformer/layer.0/attention/Sqrt_2_output_0: 3b367d3d
ONNXTRT_Broadcast_112_output: 3b367d3d
/distilbert/transformer/layer.0/attention/Mul_1_output_0: 3c6acf88
/distilbert/transformer/layer.0/attention/MatMul_output_0: 3d8d5e4c
/distilbert/transformer/layer.0/attention/Add_output_0: 7f800000
/distilbert/transformer/layer.0/attention/Softmax_output: 3c00f43c
/distilbert/transformer/layer.0/attention/Softmax_output_0: 3c00f43c
ONNXTRT_Broadcast_596_output: 280de15b
distilbert.transformer.layer.3.sa_layer_norm.bias_output: 3b76a010
/distilbert/transformer/layer.0/attention/MatMul_1_output_0: 3cb3af86
/distilbert/transformer/layer.0/attention/Transpose_3_output_0: 3cb3af86
/distilbert/transformer/layer.4/attention/Softmax_output_0: 3c00a69c
ONNXTRT_Broadcast_605_output: 35c7f3c1
/distilbert/transformer/layer.5/output_layer_norm/Sub_output_0: 3e3d981d
distilbert.transformer.layer.5.ffn.lin1.bias_output: 3b599135
distilbert.transformer.layer.4.ffn.lin2.bias_output: 3aceb175
/distilbert/transformer/layer.0/attention/Reshape_3_output_0: 3cb3af86
onnx::MatMul_871_output: 3b45fbe4
ONNXTRT_Broadcast_118_output: 3b45fbe4
/distilbert/transformer/layer.0/attention/out_lin/MatMul_output_0: 3d03d809
distilbert.transformer.layer.0.attention.out_lin.bias_output: 3aa1581a
ONNXTRT_Broadcast_120_output: 3aa1581a
/distilbert/transformer/layer.0/attention/out_lin/Add_output_0: 3d07e866
/distilbert/transformer/layer.0/Add_output_0: 3d4a26d5
/distilbert/transformer/layer.0/sa_layer_norm/ReduceMean_output_0: 3a6334e9
/distilbert/transformer/layer.0/sa_layer_norm/Sub_output_0: 3d491bb6
/distilbert/transformer/layer.0/sa_layer_norm/Constant_output_0_output: 3c810a14
ONNXTRT_Broadcast_122_output: 3c810a14
/distilbert/transformer/layer.0/sa_layer_norm/Pow_output_0: 3f2ae5c8
/distilbert/transformer/layer.0/sa_layer_norm/ReduceMean_1_output_0: 3c4cd212
/distilbert/transformer/layer.0/sa_layer_norm/Constant_1_output_0_output: 280de15b
ONNXTRT_Broadcast_124_output: 280de15b
/distilbert/transformer/layer.0/sa_layer_norm/Add_output_0: 3c4cd212
/distilbert/transformer/layer.0/sa_layer_norm/Sqrt_output_0: 3c27b09b
/distilbert/transformer/layer.0/sa_layer_norm/Div_output_0: 3db338be
distilbert.transformer.layer.0.sa_layer_norm.weight_output: 3c0b716e
ONNXTRT_Broadcast_126_output: 3c0b716e
/distilbert/transformer/layer.0/sa_layer_norm/Mul_output_0: 3e17b7ef
distilbert.transformer.layer.0.sa_layer_norm.bias_output: 3bd7b1e3
ONNXTRT_Broadcast_128_output: 3bd7b1e3
/distilbert/transformer/layer.0/sa_layer_norm/Add_1_output_0: 3e3d291e
onnx::MatMul_872_output: 3b12e27e
ONNXTRT_Broadcast_130_output: 3b12e27e
/distilbert/transformer/layer.0/ffn/lin1/MatMul_output_0: 3e0a80a0
distilbert.transformer.layer.0.ffn.lin1.bias_output: 3b340bb0
ONNXTRT_Broadcast_132_output: 3b340bb0
/distilbert/transformer/layer.0/ffn/lin1/Add_output_0: 3e0c44f9
/distilbert/transformer/layer.0/ffn/activation/Constant_output_0_output: 3c367d3d
ONNXTRT_Broadcast_134_output: 3c367d3d
/distilbert/transformer/layer.0/ffn/activation/Div_output_0: 3dc65ef6
/distilbert/transformer/layer.0/ffn/activation/Erf_output_0: 3c010a14
/distilbert/transformer/layer.0/ffn/activation/Constant_1_output_0_output: 3c010a14
ONNXTRT_Broadcast_136_output: 3c010a14
/distilbert/transformer/layer.0/ffn/activation/Add_output_0: 3c810a14
/distilbert/transformer/layer.0/ffn/activation/Mul_output_0: 3d96ef56
/distilbert/transformer/layer.0/ffn/activation/Constant_2_output_0_output: 3b810a14
ONNXTRT_Broadcast_138_output: 3b810a14
/distilbert/transformer/layer.0/ffn/activation/Mul_1_output_0: 3d16ef56
onnx::MatMul_873_output: 3b3c2451
ONNXTRT_Broadcast_140_output: 3b3c2451
/distilbert/transformer/layer.0/ffn/lin2/MatMul_output_0: 3e4f46a8
distilbert.transformer.layer.0.ffn.lin2.bias_output: 3b559856
ONNXTRT_Broadcast_142_output: 3b559856
/distilbert/transformer/layer.0/ffn/lin2/Add_output_0: 3e4e7e1d
/distilbert/transformer/layer.0/Add_1_output_0: 3ed58aef
/distilbert/transformer/layer.0/output_layer_norm/ReduceMean_output_0: 3aa8b8f5
/distilbert/transformer/layer.0/output_layer_norm/Sub_output_0: 3ed5131d
/distilbert/transformer/layer.0/output_layer_norm/Constant_output_0_output: 3c810a14
ONNXTRT_Broadcast_144_output: 3c810a14
/distilbert/transformer/layer.0/output_layer_norm/Pow_output_0: 40ae306c
/distilbert/transformer/layer.0/output_layer_norm/ReduceMean_1_output_0: 3dcf4f47
/distilbert/transformer/layer.0/output_layer_norm/Constant_1_output_0_output: 280de15b
ONNXTRT_Broadcast_146_output: 280de15b
/distilbert/transformer/layer.0/output_layer_norm/Add_output_0: 3dcf4f47
/distilbert/transformer/layer.0/output_layer_norm/Sqrt_output_0: 3ce9269e
/distilbert/transformer/layer.0/output_layer_norm/Div_output_0: 3e1b3f81
distilbert.transformer.layer.0.output_layer_norm.weight_output: 3bda2065
ONNXTRT_Broadcast_148_output: 3bda2065
/distilbert/transformer/layer.0/output_layer_norm/Mul_output_0: 3d2d7461
distilbert.transformer.layer.0.output_layer_norm.bias_output: 3b246a50
ONNXTRT_Broadcast_150_output: 3b246a50
/distilbert/transformer/layer.0/output_layer_norm/Add_1_output_0: 3d5a8198
/distilbert/transformer/layer.4/attention/v_lin/Add_output_0: 3d275464
/distilbert/transformer/layer.4/attention/Mul_1_output_0: 3c833fe6
/distilbert/transformer/layer.4/attention/Reshape_2_output_0: 3d275464
/distilbert/transformer/layer.4/attention/Cast_1_output_0: 3a810a14
onnx::MatMul_874_output: 3b7d476c
ONNXTRT_Broadcast_152_output: 3b7d476c
/distilbert/transformer/layer.1/attention/q_lin/MatMul_output_0: 3d75349f
distilbert.transformer.layer.1.attention.q_lin.bias_output: 3b73ae8a
ONNXTRT_Broadcast_154_output: 3b73ae8a
/distilbert/transformer/layer.1/attention/q_lin/Add_output_0: 3d7a93eb
/distilbert/transformer/layer.4/output_layer_norm/ReduceMean_output_0: 3b9abf6a
ONNXTRT_Broadcast_434_output: 3af472f3
ONNXTRT_Broadcast_570_output: 3aa4d98f
/distilbert/transformer/layer.4/attention/Transpose_1_output_0: 3d275464
ONNXTRT_Broadcast_588_output: 3b810a14
distilbert.transformer.layer.4.attention.v_lin.bias_output: 3af472f3
/distilbert/transformer/layer.3/sa_layer_norm/Add_1_output_0: 3e12584a
/distilbert/transformer/layer.4/attention/k_lin/Add_output_0: 3d399d6e
/distilbert/transformer/layer.4/attention/v_lin/MatMul_output_0: 3d363a1a
ONNXTRT_Broadcast_432_output: 3af1c270
onnx::MatMul_936_output: 3af1c270
ONNXTRT_Broadcast_492_output: 3b3aa4d9
/distilbert/transformer/layer.3/output_layer_norm/Constant_1_output_0_output: 280de15b
/distilbert/transformer/layer.5/sa_layer_norm/Constant_output_0_output: 3c810a14
pre_classifier.bias_output: 3816aeff
ONNXTRT_Broadcast_429_output: 39474bee
logits: 3d1b498c
ONNXTRT_Broadcast_494_output: 3c367d3d
/distilbert/transformer/layer.1/attention/Reshape_output_0: 3d7a93eb
/distilbert/transformer/layer.1/attention/Transpose_output_0: 3d7a93eb
onnx::MatMul_884_output: 3b70ecd3
ONNXTRT_Broadcast_157_output: 3b70ecd3
/distilbert/transformer/layer.1/attention/k_lin/MatMul_output_0: 3d62181f
distilbert.transformer.layer.1.attention.k_lin.bias_output: 38e9c9af
ONNXTRT_Broadcast_159_output: 38e9c9af
/distilbert/transformer/layer.1/attention/k_lin/Add_output_0: 3d60fd41
/distilbert/transformer/layer.1/attention/Reshape_1_output_0: 3d60fd41
onnx::MatMul_885_output: 3aca2619
ONNXTRT_Broadcast_162_output: 3aca2619
/distilbert/transformer/layer.1/attention/v_lin/MatMul_output_0: 3d0e1046
distilbert.transformer.layer.1.attention.v_lin.bias_output: 3b181001
ONNXTRT_Broadcast_164_output: 3b181001
/distilbert/transformer/layer.1/attention/v_lin/Add_output_0: 3d05fa2f
/distilbert/transformer/layer.1/attention/Reshape_2_output_0: 3d05fa2f
/distilbert/transformer/layer.1/attention/Transpose_1_output_0: 3d05fa2f
distilbert.transformer.layer.4.attention.k_lin.bias_output: 39474bee
/distilbert/transformer/layer.4/Add_output_0: 3e2bff14
/distilbert/transformer/layer.5/sa_layer_norm/Add_1_output_0: 3e17f8cf
onnx::MatMul_923_output: 3b1b87f1
distilbert.transformer.layer.5.sa_layer_norm.bias_output: 3af7605b
/distilbert/transformer/layer.3/sa_layer_norm/Constant_output_0_output: 3c810a14
/distilbert/transformer/layer.4/attention/k_lin/MatMul_output_0: 3d3922f3
ONNXTRT_Broadcast_508_output: 3be3749c
ONNXTRT_Broadcast_576_output: 3c233f91
/distilbert/transformer/layer.5/attention/out_lin/Add_output_0: 3dc5a000
/distilbert/transformer/layer.5/sa_layer_norm/Div_output_0: 3df2e776
ONNXTRT_Broadcast_427_output: 3b56bc48
/distilbert/transformer/layer.4/ffn/activation/Mul_output_0: 3e109397
/distilbert/transformer/layer.5/sa_layer_norm/Add_output_0: 3dace520
onnx::MatMul_935_output: 3b56bc48
/distilbert/transformer/layer.4/ffn/activation/Erf_output_0: 3c010a14
/distilbert/transformer/layer.4/attention/Reshape_output_0: 3d6584cf
/distilbert/transformer/layer.5/attention/Div_output_0: 3a810a14
/pre_classifier/Gemm_output_0: 3c9df1de
ONNXTRT_Broadcast_400_output: 3b1b87f1
ONNXTRT_Broadcast_502_output: 3aceb175
/distilbert/transformer/layer.5/attention/k_lin/Add_output_0: 3d3ddbc7
/distilbert/transformer/layer.5/sa_layer_norm/ReduceMean_1_output_0: 3dace520
distilbert.transformer.layer.3.ffn.lin1.bias_output: 3b563d02
/distilbert/transformer/layer.5/attention/Reshape_1_output_0: 3d3ddbc7
/distilbert/transformer/layer.4/output_layer_norm/Add_1_output_0: 3df75ae0
/distilbert/transformer/layer.4/attention/Transpose_output_0: 3d6584cf
/distilbert/transformer/layer.5/attention/Sqrt_2_output_0: 3b367d3d
distilbert.transformer.layer.5.attention.k_lin.bias_output: 39258e83
/distilbert/transformer/layer.1/attention/Cast_output_0: 3f010a14
/distilbert/transformer/layer.1/attention/Sqrt_output_0: 3d810a14
/distilbert/transformer/layer.1/attention/Constant_12_output_0_output: 3c010a14
/distilbert/transformer/layer.1/attention/Div_output_0: 3a810a14
/distilbert/transformer/layer.1/attention/Cast_1_output_0: 3a810a14
/distilbert/transformer/layer.1/attention/Transpose_2_output_0: 3d60fd41
/distilbert/transformer/layer.1/attention/Sqrt_1_output_0: 3b367d3d
ONNXTRT_Broadcast_200_output: 3b367d3d
/distilbert/transformer/layer.1/attention/Mul_output_0: 3cb12f6d
/distilbert/transformer/layer.1/attention/Sqrt_2_output_0: 3b367d3d
ONNXTRT_Broadcast_202_output: 3b367d3d
/distilbert/transformer/layer.1/attention/Mul_1_output_0: 3c9f1768
/distilbert/transformer/layer.1/attention/MatMul_output_0: 3e58b7b1
/distilbert/transformer/layer.1/attention/Add_output_0: 7f800000
/distilbert/transformer/layer.1/attention/Softmax_output: 3c010a14
/distilbert/transformer/layer.1/attention/Softmax_output_0: 3c010a14
ONNXTRT_Broadcast_402_output: 3b563d02
/distilbert/transformer/layer.3/ffn/lin1/MatMul_output_0: 3d87da06
/distilbert/transformer/layer.1/attention/MatMul_1_output_0: 3cc479fc
/distilbert/transformer/layer.1/attention/Transpose_3_output_0: 3cc479fc
/distilbert/transformer/layer.5/sa_layer_norm/Sub_output_0: 3e45a872
ONNXTRT_Broadcast_398_output: 3b76a010
/distilbert/transformer/layer.5/attention/Add_output_0: 7f800000
onnx::MatMul_957_output: 3af3d583
/distilbert/transformer/layer.3/ffn/lin1/Add_output_0: 3d8c3298
/distilbert/transformer/layer.1/attention/Reshape_3_output_0: 3cc479fc
onnx::MatMul_888_output: 3b1d0722
ONNXTRT_Broadcast_208_output: 3b1d0722
/distilbert/transformer/layer.1/attention/out_lin/MatMul_output_0: 3d0c2770
distilbert.transformer.layer.1.attention.out_lin.bias_output: 3b49369e
ONNXTRT_Broadcast_210_output: 3b49369e
/distilbert/transformer/layer.1/attention/out_lin/Add_output_0: 3d0347ac
/distilbert/transformer/layer.1/Add_output_0: 3dab497c
/distilbert/transformer/layer.1/sa_layer_norm/ReduceMean_output_0: 39d62014
/distilbert/transformer/layer.1/sa_layer_norm/Sub_output_0: 3daacf68
/distilbert/transformer/layer.1/sa_layer_norm/Constant_output_0_output: 3c810a14
ONNXTRT_Broadcast_212_output: 3c810a14
/distilbert/transformer/layer.1/sa_layer_norm/Pow_output_0: 3f5fa1ca
/distilbert/transformer/layer.1/sa_layer_norm/ReduceMean_1_output_0: 3ca3cf94
/distilbert/transformer/layer.1/sa_layer_norm/Constant_1_output_0_output: 280de15b
ONNXTRT_Broadcast_214_output: 280de15b
/distilbert/transformer/layer.1/sa_layer_norm/Add_output_0: 3ca3cf94
/distilbert/transformer/layer.1/sa_layer_norm/Sqrt_output_0: 3c54cccf
/distilbert/transformer/layer.1/sa_layer_norm/Div_output_0: 3e190053
distilbert.transformer.layer.1.sa_layer_norm.weight_output: 3bf548b6
ONNXTRT_Broadcast_216_output: 3bf548b6
/distilbert/transformer/layer.1/sa_layer_norm/Mul_output_0: 3dda3184
distilbert.transformer.layer.1.sa_layer_norm.bias_output: 3ba4fa79
ONNXTRT_Broadcast_218_output: 3ba4fa79
/distilbert/transformer/layer.1/sa_layer_norm/Add_1_output_0: 3ddedf07
onnx::MatMul_889_output: 3b4f2fc3
ONNXTRT_Broadcast_220_output: 3b4f2fc3
/distilbert/transformer/layer.1/ffn/lin1/MatMul_output_0: 3e195595
distilbert.transformer.layer.1.ffn.lin1.bias_output: 3b8d82cd
ONNXTRT_Broadcast_222_output: 3b8d82cd
/distilbert/transformer/layer.1/ffn/lin1/Add_output_0: 3e1c17e9
/distilbert/transformer/layer.1/ffn/activation/Constant_output_0_output: 3c367d3d
ONNXTRT_Broadcast_224_output: 3c367d3d
/distilbert/transformer/layer.1/ffn/activation/Div_output_0: 3ddcbfd8
/distilbert/transformer/layer.1/ffn/activation/Erf_output_0: 3c010a14
/distilbert/transformer/layer.1/ffn/activation/Constant_1_output_0_output: 3c010a14
ONNXTRT_Broadcast_226_output: 3c010a14
/distilbert/transformer/layer.1/ffn/activation/Add_output_0: 3c810a14
/distilbert/transformer/layer.1/ffn/activation/Mul_output_0: 3db2f9b5
/distilbert/transformer/layer.1/ffn/activation/Constant_2_output_0_output: 3b810a14
ONNXTRT_Broadcast_228_output: 3b810a14
/distilbert/transformer/layer.1/ffn/activation/Mul_1_output_0: 3d32f9b5
onnx::MatMul_890_output: 3b202c0b
ONNXTRT_Broadcast_230_output: 3b202c0b
/distilbert/transformer/layer.1/ffn/lin2/MatMul_output_0: 3edbdd96
distilbert.transformer.layer.1.ffn.lin2.bias_output: 3b1dfd43
ONNXTRT_Broadcast_232_output: 3b1dfd43
/distilbert/transformer/layer.1/ffn/lin2/Add_output_0: 3edbf3b9
/distilbert/transformer/layer.1/Add_1_output_0: 3e9be46f
/distilbert/transformer/layer.1/output_layer_norm/ReduceMean_output_0: 3b181d8b
/distilbert/transformer/layer.1/output_layer_norm/Sub_output_0: 3e9baafe
/distilbert/transformer/layer.1/output_layer_norm/Constant_output_0_output: 3c810a14
ONNXTRT_Broadcast_234_output: 3c810a14
/distilbert/transformer/layer.1/output_layer_norm/Pow_output_0: 43a0fda6
/distilbert/transformer/layer.1/output_layer_norm/ReduceMean_1_output_0: 3f0475b0
/distilbert/transformer/layer.1/output_layer_norm/Constant_1_output_0_output: 280de15b
ONNXTRT_Broadcast_236_output: 280de15b
/distilbert/transformer/layer.1/output_layer_norm/Add_output_0: 3f0475b0
/distilbert/transformer/layer.1/output_layer_norm/Sqrt_output_0: 3d71947c
/distilbert/transformer/layer.1/output_layer_norm/Div_output_0: 3e48f58e
distilbert.transformer.layer.1.output_layer_norm.weight_output: 3bf036b4
ONNXTRT_Broadcast_238_output: 3bf036b4
/distilbert/transformer/layer.1/output_layer_norm/Mul_output_0: 3da4dd5f
distilbert.transformer.layer.1.output_layer_norm.bias_output: 3b019fb5
ONNXTRT_Broadcast_240_output: 3b019fb5
/distilbert/transformer/layer.1/output_layer_norm/Add_1_output_0: 3da64f89
/distilbert/transformer/layer.3/sa_layer_norm/Constant_1_output_0_output: 280de15b
ONNXTRT_Broadcast_404_output: 3c367d3d
/distilbert/transformer/layer.5/Add_output_0: 3e483ff7
/distilbert/transformer/layer.5/attention/v_lin/MatMul_output_0: 3d5420f3
onnx::MatMul_891_output: 3b2c1e6a
ONNXTRT_Broadcast_242_output: 3b2c1e6a
/distilbert/transformer/layer.2/attention/q_lin/MatMul_output_0: 3d454cb5
distilbert.transformer.layer.2.attention.q_lin.bias_output: 3ba97add
ONNXTRT_Broadcast_244_output: 3ba97add
/distilbert/transformer/layer.2/attention/q_lin/Add_output_0: 3d56f23b
distilbert.transformer.layer.5.attention.out_lin.bias_output: 3aa4d98f
/distilbert/transformer/layer.3/attention/MatMul_output_0: 3de60e75
ONNXTRT_Broadcast_600_output: 3aaf1898
/distilbert/transformer/layer.5/attention/Mul_output_0: 3c8b54ca
/distilbert/transformer/layer.5/attention/Reshape_3_output_0: 3d1a6132
ONNXTRT_Broadcast_598_output: 3bc170ca
ONNXTRT_Broadcast_396_output: 3bf3f1a9
/distilbert/transformer/layer.3/ffn/activation/Constant_output_0_output: 3c367d3d
ONNXTRT_Broadcast_524_output: 3a34edfc
/distilbert/transformer/layer.3/ffn/activation/Div_output_0: 3d4644f8
/distilbert/transformer/layer.5/attention/Mul_1_output_0: 3c86400e
/distilbert/transformer/layer.5/attention/MatMul_1_output_0: 3d1a6132
/distilbert/transformer/layer.5/attention/Transpose_1_output_0: 3d55f9d2
/distilbert/transformer/layer.3/attention/Softmax_output: 3c00f055
/distilbert/transformer/layer.3/ffn/activation/Constant_1_output_0_output: 3c010a14
/distilbert/transformer/layer.5/attention/Reshape_2_output_0: 3d55f9d2
ONNXTRT_Broadcast_572_output: 3c810a14
/distilbert/transformer/layer.2/attention/Reshape_output_0: 3d56f23b
/distilbert/transformer/layer.2/attention/Transpose_output_0: 3d56f23b
onnx::MatMul_901_output: 3b2f9d58
ONNXTRT_Broadcast_247_output: 3b2f9d58
/distilbert/transformer/layer.2/attention/k_lin/MatMul_output_0: 3d5ec554
distilbert.transformer.layer.2.attention.k_lin.bias_output: 39115c47
ONNXTRT_Broadcast_249_output: 39115c47
/distilbert/transformer/layer.2/attention/k_lin/Add_output_0: 3d5673b5
/distilbert/transformer/layer.2/attention/Reshape_1_output_0: 3d5673b5
onnx::MatMul_902_output: 3ae1909e
ONNXTRT_Broadcast_252_output: 3ae1909e
/distilbert/transformer/layer.2/attention/v_lin/MatMul_output_0: 3d135031
distilbert.transformer.layer.2.attention.v_lin.bias_output: 3a7e6884
ONNXTRT_Broadcast_254_output: 3a7e6884
/distilbert/transformer/layer.2/attention/v_lin/Add_output_0: 3d13855a
/distilbert/transformer/layer.2/attention/Reshape_2_output_0: 3d13855a
/distilbert/transformer/layer.2/attention/Transpose_1_output_0: 3d13855a
distilbert.transformer.layer.3.sa_layer_norm.weight_output: 3bf3f1a9
onnx::MatMul_922_output: 3b1045bf
/distilbert/transformer/layer.4/attention/q_lin/Add_output_0: 3d6584cf
ONNXTRT_Broadcast_590_output: 3ad31c4b
/distilbert/transformer/layer.5/attention/Softmax_output: 3bff241d
distilbert.transformer.layer.5.attention.v_lin.bias_output: 3a34edfc
classifier.bias_output: 35c7f3c1
/distilbert/transformer/layer.5/sa_layer_norm/Pow_output_0: 3f8a474b
/distilbert/transformer/layer.5/ffn/lin2/Add_output_0: 3cdbd7e4
/distilbert/transformer/layer.5/ffn/activation/Erf_output_0: 3c010a14
/distilbert/transformer/layer.5/sa_layer_norm/Constant_1_output_0_output: 280de15b
ONNXTRT_Broadcast_424_output: 3bcb75fd
onnx::MatMul_941_output: 3b0f2a82
/distilbert/transformer/layer.5/attention/MatMul_output_0: 3dbf4fe7
distilbert.transformer.layer.4.attention.q_lin.bias_output: 3bcb75fd
ONNXTRT_Broadcast_500_output: 3b0f2a82
onnx::MatMul_925_output: 3b02b1d9
/distilbert/transformer/layer.3/ffn/activation/Erf_output_0: 3c010a14
/distilbert/transformer/layer.4/attention/q_lin/MatMul_output_0: 3d55f126
/distilbert/transformer/layer.3/output_layer_norm/Add_1_output_0: 3e041eef
/distilbert/transformer/layer.3/attention/out_lin/Add_output_0: 3d0fb7e9
/distilbert/transformer/layer.3/attention/Transpose_3_output_0: 3cbc3bc8
ONNXTRT_Broadcast_562_output: 3b367d3d
/distilbert/transformer/layer.3/Add_1_output_0: 3e12d228
/distilbert/transformer/layer.3/sa_layer_norm/Add_output_0: 3caffe70
ONNXTRT_Broadcast_420_output: 3abb4d2b
/distilbert/transformer/layer.5/output_layer_norm/Constant_output_0_output: 3c810a14
/distilbert/transformer/layer.4/output_layer_norm/Sqrt_output_0: 3e0288dc
distilbert.transformer.layer.3.output_layer_norm.bias_output: 3abb4d2b
/distilbert/transformer/layer.2/attention/Cast_output_0: 3f010a14
/distilbert/transformer/layer.2/attention/Sqrt_output_0: 3d810a14
/distilbert/transformer/layer.2/attention/Constant_12_output_0_output: 3c010a14
/distilbert/transformer/layer.2/attention/Div_output_0: 3a810a14
/distilbert/transformer/layer.2/attention/Cast_1_output_0: 3a810a14
/distilbert/transformer/layer.2/attention/Transpose_2_output_0: 3d5673b5
/distilbert/transformer/layer.2/attention/Sqrt_1_output_0: 3b367d3d
ONNXTRT_Broadcast_290_output: 3b367d3d
/distilbert/transformer/layer.2/attention/Mul_output_0: 3c97fd6c
/distilbert/transformer/layer.2/attention/Sqrt_2_output_0: 3b367d3d
ONNXTRT_Broadcast_292_output: 3b367d3d
/distilbert/transformer/layer.2/attention/Mul_1_output_0: 3c97a3f5
/distilbert/transformer/layer.2/attention/MatMul_output_0: 3e0fc6a1
/distilbert/transformer/layer.2/attention/Add_output_0: 7f800000
/distilbert/transformer/layer.2/attention/Softmax_output: 3c010f0d
/distilbert/transformer/layer.2/attention/Softmax_output_0: 3c010f0d
ONNXTRT_Broadcast_488_output: 3b5ea896
ONNXTRT_Broadcast_390_output: 3aa79b19
/distilbert/transformer/layer.2/attention/MatMul_1_output_0: 3ca76602
/distilbert/transformer/layer.2/attention/Transpose_3_output_0: 3ca76602
/distilbert/transformer/layer.5/attention/Sqrt_1_output_0: 3b367d3d
/distilbert/transformer/layer.3/attention/MatMul_1_output_0: 3cbc3bc8
/distilbert/transformer/layer.5/ffn/lin1/Add_output_0: 3dd24116
/distilbert/transformer/layer.5/attention/Cast_1_output_0: 3a810a14
/distilbert/transformer/layer.5/ffn/lin1/MatMul_output_0: 3dcf4d15
/distilbert/transformer/layer.2/attention/Reshape_3_output_0: 3ca76602
onnx::MatMul_905_output: 3b1db457
ONNXTRT_Broadcast_298_output: 3b1db457
/distilbert/transformer/layer.2/attention/out_lin/MatMul_output_0: 3ce65aa7
distilbert.transformer.layer.2.attention.out_lin.bias_output: 3ab4619f
ONNXTRT_Broadcast_300_output: 3ab4619f
/distilbert/transformer/layer.2/attention/out_lin/Add_output_0: 3cd3574f
/distilbert/transformer/layer.2/Add_output_0: 3dc3e0b3
/distilbert/transformer/layer.2/sa_layer_norm/ReduceMean_output_0: 399d1666
/distilbert/transformer/layer.2/sa_layer_norm/Sub_output_0: 3dc38e0c
/distilbert/transformer/layer.2/sa_layer_norm/Constant_output_0_output: 3c810a14
ONNXTRT_Broadcast_302_output: 3c810a14
/distilbert/transformer/layer.2/sa_layer_norm/Pow_output_0: 3e59a58d
/distilbert/transformer/layer.2/sa_layer_norm/ReduceMean_1_output_0: 3c4ea967
/distilbert/transformer/layer.2/sa_layer_norm/Constant_1_output_0_output: 280de15b
ONNXTRT_Broadcast_304_output: 280de15b
/distilbert/transformer/layer.2/sa_layer_norm/Add_output_0: 3c4ea967
/distilbert/transformer/layer.2/sa_layer_norm/Sqrt_output_0: 3c27319f
/distilbert/transformer/layer.2/sa_layer_norm/Div_output_0: 3e18065b
distilbert.transformer.layer.2.sa_layer_norm.weight_output: 3beebbee
ONNXTRT_Broadcast_306_output: 3beebbee
/distilbert/transformer/layer.2/sa_layer_norm/Mul_output_0: 3e609449
distilbert.transformer.layer.2.sa_layer_norm.bias_output: 3b6befb1
ONNXTRT_Broadcast_308_output: 3b6befb1
/distilbert/transformer/layer.2/sa_layer_norm/Add_1_output_0: 3e67673d
onnx::MatMul_906_output: 3b5da5eb
ONNXTRT_Broadcast_310_output: 3b5da5eb
/distilbert/transformer/layer.2/ffn/lin1/MatMul_output_0: 3e2af5ea
distilbert.transformer.layer.2.ffn.lin1.bias_output: 3b85cde6
ONNXTRT_Broadcast_312_output: 3b85cde6
/distilbert/transformer/layer.2/ffn/lin1/Add_output_0: 3e2790f7
/distilbert/transformer/layer.2/ffn/activation/Constant_output_0_output: 3c367d3d
ONNXTRT_Broadcast_314_output: 3c367d3d
/distilbert/transformer/layer.2/ffn/activation/Div_output_0: 3decf978
/distilbert/transformer/layer.2/ffn/activation/Erf_output_0: 3c010a14
/distilbert/transformer/layer.2/ffn/activation/Constant_1_output_0_output: 3c010a14
ONNXTRT_Broadcast_316_output: 3c010a14
/distilbert/transformer/layer.2/ffn/activation/Add_output_0: 3c810a14
/distilbert/transformer/layer.2/ffn/activation/Mul_output_0: 3d8577c5
/distilbert/transformer/layer.2/ffn/activation/Constant_2_output_0_output: 3b810a14
ONNXTRT_Broadcast_318_output: 3b810a14
/distilbert/transformer/layer.2/ffn/activation/Mul_1_output_0: 3d0577c5
onnx::MatMul_907_output: 3ba3e879
ONNXTRT_Broadcast_320_output: 3ba3e879
/distilbert/transformer/layer.2/ffn/lin2/MatMul_output_0: 3f1cca1f
distilbert.transformer.layer.2.ffn.lin2.bias_output: 3abd0ed0
ONNXTRT_Broadcast_322_output: 3abd0ed0
/distilbert/transformer/layer.2/ffn/lin2/Add_output_0: 3f1cd689
/distilbert/transformer/layer.2/Add_1_output_0: 3f573aa5
/distilbert/transformer/layer.2/output_layer_norm/ReduceMean_output_0: 3b6b9a9b
/distilbert/transformer/layer.2/output_layer_norm/Sub_output_0: 3f56f417
/distilbert/transformer/layer.2/output_layer_norm/Constant_output_0_output: 3c810a14
ONNXTRT_Broadcast_324_output: 3c810a14
/distilbert/transformer/layer.2/output_layer_norm/Pow_output_0: 432a5011
/distilbert/transformer/layer.2/output_layer_norm/ReduceMean_1_output_0: 3e69ec3f
/distilbert/transformer/layer.2/output_layer_norm/Constant_1_output_0_output: 280de15b
ONNXTRT_Broadcast_326_output: 280de15b
/distilbert/transformer/layer.2/output_layer_norm/Add_output_0: 3e69ec3f
/distilbert/transformer/layer.2/output_layer_norm/Sqrt_output_0: 3de1cb41
/distilbert/transformer/layer.2/output_layer_norm/Div_output_0: 3d254967
distilbert.transformer.layer.2.output_layer_norm.weight_output: 3bf2aec1
ONNXTRT_Broadcast_328_output: 3bf2aec1
/distilbert/transformer/layer.2/output_layer_norm/Mul_output_0: 3dda8cd2
distilbert.transformer.layer.2.output_layer_norm.bias_output: 3ae80a48
ONNXTRT_Broadcast_330_output: 3ae80a48
/distilbert/transformer/layer.2/output_layer_norm/Add_1_output_0: 3dda1c3b
distilbert.transformer.layer.3.output_layer_norm.weight_output: 3c14bd59
/distilbert/transformer/layer.3/output_layer_norm/Div_output_0: 3e0b77d5
/distilbert/transformer/layer.5/attention/Constant_12_output_0_output: 3c010a14
onnx::MatMul_942_output: 3b3ca8bc
onnx::MatMul_908_output: 3b0b5a6f
ONNXTRT_Broadcast_332_output: 3b0b5a6f
/distilbert/transformer/layer.3/attention/q_lin/MatMul_output_0: 3d5c72f0
distilbert.transformer.layer.3.attention.q_lin.bias_output: 3bba058e
ONNXTRT_Broadcast_334_output: 3bba058e
/distilbert/transformer/layer.3/attention/q_lin/Add_output_0: 3d73990c
/distilbert/transformer/layer.5/attention/Transpose_2_output_0: 3d3ddbc7
/distilbert/transformer/layer.5/attention/Transpose_output_0: 3d450b4a
/distilbert/transformer/layer.5/attention/Cast_output_0: 3f010a14
/distilbert/transformer/layer.4/output_layer_norm/Constant_1_output_0_output: 280de15b
/distilbert/transformer/layer.3/attention/Softmax_output_0: 3c00f055
/distilbert/transformer/layer.4/output_layer_norm/Sub_output_0: 3f5f1799
/distilbert/transformer/layer.3/output_layer_norm/Mul_output_0: 3e0ae442
/distilbert/transformer/layer.3/output_layer_norm/Add_output_0: 3df28c74
/distilbert/transformer/layer.5/attention/Softmax_output_0: 3bff241d
/distilbert/transformer/layer.3/output_layer_norm/Sqrt_output_0: 3cf9faba
onnx::MatMul_953_output: 3b079acb
ONNXTRT_Broadcast_416_output: 280de15b
ONNXTRT_Broadcast_418_output: 3c14bd59
ONNXTRT_Broadcast_414_output: 3c810a14
/distilbert/transformer/layer.3/output_layer_norm/ReduceMean_1_output_0: 3df28c74
/Gather_output_0: 3d00b0ea
/distilbert/transformer/layer.3/output_layer_norm/Pow_output_0: 42e443ca
/distilbert/transformer/layer.4/attention/Cast_output_0: 3f010a14
/distilbert/transformer/layer.3/attention/Reshape_output_0: 3d73990c
/distilbert/transformer/layer.3/attention/Transpose_output_0: 3d73990c
onnx::MatMul_918_output: 3b24fda7
ONNXTRT_Broadcast_337_output: 3b24fda7
/distilbert/transformer/layer.3/attention/k_lin/MatMul_output_0: 3d49ba63
distilbert.transformer.layer.3.attention.k_lin.bias_output: 39308625
ONNXTRT_Broadcast_339_output: 39308625
/distilbert/transformer/layer.3/attention/k_lin/Add_output_0: 3d4a08b9
/distilbert/transformer/layer.3/attention/Reshape_1_output_0: 3d4a08b9
onnx::MatMul_919_output: 3afb8be3
ONNXTRT_Broadcast_342_output: 3afb8be3
/distilbert/transformer/layer.3/attention/v_lin/MatMul_output_0: 3d217da5
distilbert.transformer.layer.3.attention.v_lin.bias_output: 3aeeba57
ONNXTRT_Broadcast_344_output: 3aeeba57
/distilbert/transformer/layer.3/attention/v_lin/Add_output_0: 3d297e61
/distilbert/transformer/layer.3/attention/Reshape_2_output_0: 3d297e61
/distilbert/transformer/layer.3/attention/Transpose_1_output_0: 3d297e61
/distilbert/transformer/layer.5/output_layer_norm/Add_output_0: 3c842db4
ONNXTRT_Broadcast_422_output: 3b02b1d9
/distilbert/transformer/layer.3/output_layer_norm/Sub_output_0: 3e12a028
/distilbert/transformer/layer.4/attention/Sqrt_output_0: 3d810a14
ONNXTRT_Broadcast_410_output: 3b2abb8c
ONNXTRT_Broadcast_522_output: 3b079acb
/distilbert/transformer/layer.5/output_layer_norm/Div_output_0: 3e263ad8
/distilbert/transformer/layer.3/output_layer_norm/ReduceMean_output_0: 3a930aff
/distilbert/transformer/layer.5/output_layer_norm/Mul_output_0: 3d1dccc6
/distilbert/transformer/layer.4/output_layer_norm/Constant_output_0_output: 3c810a14
/distilbert/transformer/layer.4/attention/Reshape_1_output_0: 3d399d6e
distilbert.transformer.layer.5.attention.q_lin.bias_output: 3bddf0bd
/distilbert/transformer/layer.3/ffn/lin2/Add_output_0: 3cd2a837
/distilbert/transformer/layer.3/output_layer_norm/Constant_output_0_output: 3c810a14
ONNXTRT_Broadcast_412_output: 3aeaed0f
distilbert.transformer.layer.3.ffn.lin2.bias_output: 3aeaed0f
ONNXTRT_Broadcast_568_output: 3b0b62c6
/distilbert/transformer/layer.4/output_layer_norm/Div_output_0: 3de2a142
onnx::MatMul_924_output: 3b2abb8c
/distilbert/transformer/layer.3/ffn/activation/Mul_1_output_0: 3c4859f9
ONNXTRT_Broadcast_578_output: 3af7605b
/distilbert/transformer/layer.5/ffn/activation/Mul_1_output_0: 3cb36107
/distilbert/transformer/layer.3/ffn/activation/Add_output_0: 3c810a14
ONNXTRT_Broadcast_408_output: 3b810a14
/distilbert/transformer/layer.3/ffn/activation/Constant_2_output_0_output: 3b810a14
ONNXTRT_Broadcast_510_output: 3b4fe8d8
/distilbert/transformer/layer.3/ffn/lin2/MatMul_output_0: 3cc67466
/distilbert/transformer/layer.4/output_layer_norm/Pow_output_0: 4501488f
/distilbert/transformer/layer.3/ffn/activation/Mul_output_0: 3cc859f9
/distilbert/transformer/layer.3/attention/Cast_output_0: 3f010a14
/distilbert/transformer/layer.3/attention/Sqrt_output_0: 3d810a14
/distilbert/transformer/layer.3/attention/Constant_12_output_0_output: 3c010a14
/distilbert/transformer/layer.3/attention/Div_output_0: 3a810a14
/distilbert/transformer/layer.3/attention/Cast_1_output_0: 3a810a14
/distilbert/transformer/layer.3/attention/Transpose_2_output_0: 3d4a08b9
/distilbert/transformer/layer.3/attention/Sqrt_1_output_0: 3b367d3d
ONNXTRT_Broadcast_380_output: 3b367d3d
/distilbert/transformer/layer.3/attention/Mul_output_0: 3cac3feb
/distilbert/transformer/layer.3/attention/Sqrt_2_output_0: 3b367d3d
ONNXTRT_Broadcast_382_output: 3b367d3d
/distilbert/transformer/layer.3/attention/Mul_1_output_0: 3c8edc13
