TRT-101303-MinMaxCalibration
/distilbert/transformer/layer.3/attention/Reshape_3_output_0: 3d49a5bb
ONNXTRT_Broadcast_502_output: 3bac7f3b
ONNXTRT_Broadcast_605_output: 35c7e743
distilbert.transformer.layer.4.ffn.lin2.bias_output: 3bac7f3b
/distilbert/embeddings/word_embeddings/Gather_output_0: 3c0de985
/distilbert/transformer/layer.4/output_layer_norm/Add_1_output_0: 3e3b0c70
ONNXTRT_Broadcast_510_output: 3b4fdbda
/distilbert/transformer/layer.3/sa_layer_norm/Sub_output_0: 3e2b9a0d
onnx::MatMul_957_output: 3b81fa24
/distilbert/transformer/layer.4/output_layer_norm/Add_output_0: 4192ebd8
distilbert.transformer.layer.4.output_layer_norm.bias_output: 3b4fdbda
onnx::MatMul_942_output: 3ba59ccb
ONNXTRT_Broadcast_576_output: 3c463d8f
/distilbert/transformer/layer.3/attention/MatMul_1_output_0: 3d49a5bb
pre_classifier.weight_output: 3a64d1c7
/distilbert/transformer/layer.5/attention/Transpose_2_output_0: 3d7e455c
ONNXTRT_Broadcast_600_output: 3b3d6edc
/distilbert/transformer/layer.3/attention/Softmax_output: 3c0101f3
ONNXTRT_Broadcast_512_output: 3ba59ccb
/distilbert/transformer/layer.5/attention/Sqrt_output_0: 3d810204
/distilbert/transformer/layer.5/attention/out_lin/Add_output_0: 3e3a4915
pre_classifier.bias_output: 3816a594
/distilbert/transformer/layer.5/attention/k_lin/MatMul_output_0: 3d7e2855
/distilbert/transformer/layer.5/ffn/activation/Constant_1_output_0_output: 3c010204
distilbert.transformer.layer.5.output_layer_norm.weight_output: 3bc164b3
/distilbert/transformer/layer.5/attention/v_lin/Add_output_0: 3d9fae8a
/distilbert/transformer/layer.5/output_layer_norm/Sqrt_output_0: 3c84fea9
/distilbert/transformer/layer.4/output_layer_norm/Mul_output_0: 3e37cd00
ONNXTRT_Broadcast_508_output: 3c385736
distilbert.transformer.layer.4.output_layer_norm.weight_output: 3c385736
/distilbert/transformer/layer.3/sa_layer_norm/Constant_output_0_output: 3c810204
/distilbert/transformer/layer.5/ffn/lin1/MatMul_output_0: 3e5d9f4e
/distilbert/transformer/layer.4/output_layer_norm/Div_output_0: 3e56bca1
/distilbert/transformer/layer.4/output_layer_norm/Sqrt_output_0: 3ec2b324
/distilbert/transformer/layer.5/output_layer_norm/ReduceMean_1_output_0: 3d091ada
/distilbert/transformer/layer.4/output_layer_norm/Constant_1_output_0_output: 280dd87d
/distilbert/embeddings/position_embeddings/Gather_output_0: 3bf5e870
/distilbert/embeddings/Add_output_0: 3c846edf
/distilbert/embeddings/LayerNorm/ReduceMean_output_0: 3a0f9472
/distilbert/embeddings/LayerNorm/Sub_output_0: 3c84a55b
/distilbert/embeddings/LayerNorm/Constant_output_0_output: 3c810204
ONNXTRT_Broadcast_output: 3c810204
/distilbert/embeddings/LayerNorm/Pow_output_0: 3d0862f5
/distilbert/embeddings/LayerNorm/ReduceMean_1_output_0: 393631d2
/distilbert/embeddings/LayerNorm/Constant_1_output_0_output: 280dd87d
ONNXTRT_Broadcast_31_output: 280dd87d
/distilbert/embeddings/LayerNorm/Add_output_0: 393631d2
/distilbert/embeddings/LayerNorm/Sqrt_output_0: 3a994fd9
/distilbert/embeddings/LayerNorm/Div_output_0: 3df2b994
distilbert.embeddings.LayerNorm.weight_output: 3befe38c
ONNXTRT_Broadcast_33_output: 3befe38c
/distilbert/embeddings/LayerNorm/Mul_output_0: 3d8a24dd
distilbert.embeddings.LayerNorm.bias_output: 3b92f10a
ONNXTRT_Broadcast_35_output: 3b92f10a
/distilbert/embeddings/LayerNorm/Add_1_output_0: 3d89cd2a
/distilbert/transformer/layer.5/attention/Mul_output_0: 3cb2f75d
/distilbert/transformer/layer.5/attention/Reshape_1_output_0: 3d7e455c
/distilbert/transformer/layer.5/output_layer_norm/Constant_output_0_output: 3c810204
/distilbert/transformer/layer.4/ffn/lin2/MatMul_output_0: 40f1f94f
ONNXTRT_Broadcast_412_output: 3bc09b00
classifier.weight_output: 3a176bce
/distilbert/transformer/layer.5/Add_1_output_0: 3e8d1641
/distilbert/transformer/layer.4/ffn/activation/Mul_1_output_0: 3f318e86
ONNXTRT_Broadcast_592_output: 3b9656ab
/distilbert/transformer/layer.5/attention/k_lin/Add_output_0: 3d7e455c
ONNXTRT_Broadcast_572_output: 3c810204
ONNXTRT_Broadcast_500_output: 3d094490
/distilbert/transformer/layer.5/attention/Transpose_output_0: 3d7d18b5
onnx::MatMul_923_output: 3b79ba43
ONNXTRT_Broadcast_590_output: 3ccd7dda
ONNXTRT_Broadcast_498_output: 3b810204
/distilbert/transformer/layer.4/ffn/lin2/Add_output_0: 40f2246f
/distilbert/transformer/layer.4/ffn/activation/Constant_2_output_0_output: 3b810204
/distilbert/transformer/layer.4/ffn/activation/Mul_output_0: 3fb18e86
distilbert.transformer.layer.5.attention.q_lin.bias_output: 3bdde2e0
/distilbert/transformer/layer.5/attention/q_lin/MatMul_output_0: 3d68e83a
/distilbert/transformer/layer.4/ffn/activation/Add_output_0: 3c810204
ONNXTRT_Broadcast_496_output: 3c010204
/distilbert/transformer/layer.4/ffn/activation/Constant_1_output_0_output: 3c010204
/distilbert/transformer/layer.4/ffn/activation/Erf_output_0: 3c010204
/distilbert/transformer/layer.4/ffn/activation/Div_output_0: 3efb1a68
ONNXTRT_Broadcast_422_output: 3b0554d7
ONNXTRT_Broadcast_494_output: 3c3671d7
/distilbert/transformer/layer.5/ffn/lin2/MatMul_output_0: 3e634db4
ONNXTRT_Broadcast_492_output: 3b9ad186
ONNXTRT_Broadcast_504_output: 3c810204
/distilbert/transformer/layer.4/output_layer_norm/Constant_output_0_output: 3c810204
/distilbert/transformer/layer.3/attention/Transpose_3_output_0: 3d49a5bb
/distilbert/transformer/layer.4/ffn/lin1/Add_output_0: 3f318e86
distilbert.transformer.layer.4.ffn.lin1.bias_output: 3b9ad186
/distilbert/transformer/layer.4/output_layer_norm/Pow_output_0: 45e64d7c
/distilbert/transformer/layer.4/output_layer_norm/Sub_output_0: 40f3c405
/distilbert/transformer/layer.5/ffn/activation/Mul_1_output_0: 3d93fe15
/distilbert/transformer/layer.4/output_layer_norm/ReduceMean_output_0: 3c745e79
/distilbert/transformer/layer.4/Add_1_output_0: 40f43e34
/distilbert/Cast_output_0: 3c010204
/distilbert/Constant_11_output_0_output: 3c010204
ONNXTRT_Broadcast_58_output: 3c010204
/distilbert/Sub_output_0: 3c010204
/distilbert/Where_1_output_0: 7c010204
ONNXTRT_Broadcast_410_output: 3ccad1ba
/distilbert/transformer/layer.4/sa_layer_norm/Mul_output_0: 3eecf82e
distilbert.transformer.layer.4.sa_layer_norm.bias_output: 3c3d36ac
distilbert.transformer.layer.4.sa_layer_norm.weight_output: 3ca00005
onnx::MatMul_857_output: 3bb5d4c3
ONNXTRT_Broadcast_62_output: 3bb5d4c3
/distilbert/transformer/layer.0/attention/q_lin/MatMul_output_0: 3d5daefb
distilbert.transformer.layer.0.attention.q_lin.bias_output: 3c0e2731
ONNXTRT_Broadcast_64_output: 3c0e2731
/distilbert/transformer/layer.0/attention/q_lin/Add_output_0: 3d76c5d7
/distilbert/transformer/layer.5/ffn/activation/Mul_output_0: 3e13fe15
/distilbert/transformer/layer.5/attention/Constant_12_output_0_output: 3c010204
ONNXTRT_Broadcast_586_output: 3c010204
/distilbert/transformer/layer.5/ffn/activation/Div_output_0: 3e1e7ab1
ONNXTRT_Broadcast_488_output: 3c3d36ac
/pre_classifier/Gemm_output_0: 3c9d6da6
/distilbert/transformer/layer.4/ffn/lin1/MatMul_output_0: 3f31de1f
/distilbert/transformer/layer.5/attention/Transpose_1_output_0: 3d9fae8a
/Relu_output_0: 3c9d6da6
/distilbert/transformer/layer.4/sa_layer_norm/Div_output_0: 3e3f1175
/distilbert/transformer/layer.5/output_layer_norm/ReduceMean_output_0: 3a794fde
/distilbert/transformer/layer.4/sa_layer_norm/Add_output_0: 3d41cb97
ONNXTRT_Broadcast_490_output: 3be4066d
ONNXTRT_Broadcast_420_output: 3bf77ac6
/distilbert/transformer/layer.5/ffn/activation/Constant_output_0_output: 3c3671d7
ONNXTRT_Broadcast_484_output: 280dd87d
/distilbert/transformer/layer.4/sa_layer_norm/Constant_1_output_0_output: 280dd87d
/distilbert/transformer/layer.4/sa_layer_norm/ReduceMean_1_output_0: 3d41cb97
/distilbert/transformer/layer.0/attention/Reshape_output_0: 3d76c5d7
/distilbert/transformer/layer.0/attention/Transpose_output_0: 3d76c5d7
onnx::MatMul_867_output: 3bf06cce
ONNXTRT_Broadcast_67_output: 3bf06cce
/distilbert/transformer/layer.0/attention/k_lin/MatMul_output_0: 3d87b93d
distilbert.transformer.layer.0.attention.k_lin.bias_output: 38cda291
ONNXTRT_Broadcast_69_output: 38cda291
/distilbert/transformer/layer.0/attention/k_lin/Add_output_0: 3d87b406
/distilbert/transformer/layer.0/attention/Reshape_1_output_0: 3d87b406
onnx::MatMul_868_output: 3acc22fb
ONNXTRT_Broadcast_72_output: 3acc22fb
/distilbert/transformer/layer.0/attention/v_lin/MatMul_output_0: 3d66d7d7
distilbert.transformer.layer.0.attention.v_lin.bias_output: 3b58ffc4
ONNXTRT_Broadcast_74_output: 3b58ffc4
/distilbert/transformer/layer.0/attention/v_lin/Add_output_0: 3d679b4e
/distilbert/transformer/layer.0/attention/Reshape_2_output_0: 3d679b4e
/distilbert/transformer/layer.0/attention/Transpose_1_output_0: 3d679b4e
/distilbert/transformer/layer.4/output_layer_norm/ReduceMean_1_output_0: 4192ebd8
/distilbert/transformer/layer.4/sa_layer_norm/Pow_output_0: 40dedc4d
/distilbert/transformer/layer.4/sa_layer_norm/Constant_output_0_output: 3c810204
/distilbert/transformer/layer.4/sa_layer_norm/Sub_output_0: 3e6fcb76
ONNXTRT_Broadcast_478_output: 3b619de7
onnx::MatMul_939_output: 3b619de7
ONNXTRT_Broadcast_582_output: 3b974cba
/distilbert/transformer/layer.4/sa_layer_norm/ReduceMean_output_0: 39c5d3a1
/distilbert/transformer/layer.4/Add_output_0: 3e7001c4
distilbert.transformer.layer.5.ffn.lin1.bias_output: 3b974cba
/distilbert/transformer/layer.4/attention/out_lin/Add_output_0: 3dd03eaa
ONNXTRT_Broadcast_480_output: 3ba3ef1c
ONNXTRT_Broadcast_482_output: 3c810204
ONNXTRT_Broadcast_596_output: 280dd87d
/distilbert/transformer/layer.5/attention/Reshape_output_0: 3d7d18b5
/distilbert/transformer/layer.3/sa_layer_norm/ReduceMean_1_output_0: 3cdded65
distilbert.transformer.layer.5.attention.k_lin.bias_output: 3988e224
/distilbert/transformer/layer.4/attention/Reshape_3_output_0: 3d50d1ce
ONNXTRT_Broadcast_394_output: 280dd87d
onnx::MatMul_922_output: 3b162ce3
/distilbert/transformer/layer.3/attention/MatMul_output_0: 3e1d14bc
/distilbert/transformer/layer.4/attention/out_lin/MatMul_output_0: 3dda7d9c
distilbert.transformer.layer.5.attention.out_lin.bias_output: 3ac43ab2
/distilbert/transformer/layer.4/attention/MatMul_1_output_0: 3d50d1ce
ONNXTRT_Broadcast_522_output: 3b21fb6c
ONNXTRT_Broadcast_580_output: 3b81fa24
onnx::MatMul_953_output: 3b21fb6c
/distilbert/transformer/layer.4/sa_layer_norm/Sqrt_output_0: 3c9e1e0e
/distilbert/transformer/layer.0/attention/Cast_output_0: 3f010204
/distilbert/transformer/layer.0/attention/Sqrt_output_0: 3d810204
/distilbert/transformer/layer.0/attention/Constant_12_output_0_output: 3c010204
/distilbert/transformer/layer.0/attention/Div_output_0: 3a810204
/distilbert/transformer/layer.0/attention/Cast_1_output_0: 3a810204
/distilbert/transformer/layer.0/attention/Transpose_2_output_0: 3d87b406
/distilbert/transformer/layer.0/attention/Sqrt_1_output_0: 3b3671d7
ONNXTRT_Broadcast_110_output: 3b3671d7
/distilbert/transformer/layer.0/attention/Mul_output_0: 3cae7ea6
/distilbert/transformer/layer.0/attention/Sqrt_2_output_0: 3b3671d7
ONNXTRT_Broadcast_112_output: 3b3671d7
/distilbert/transformer/layer.0/attention/Mul_1_output_0: 3cbfe9d0
/distilbert/transformer/layer.0/attention/MatMul_output_0: 3e0c0c30
/distilbert/transformer/layer.0/attention/Add_output_0: 7c010204
/distilbert/transformer/layer.0/attention/Softmax_output: 3c00ffeb
/distilbert/transformer/layer.0/attention/Softmax_output_0: 3c00ffeb
/distilbert/transformer/layer.4/attention/Transpose_1_output_0: 3d5c5829
/distilbert/transformer/layer.5/attention/Sqrt_1_output_0: 3b3671d7
/distilbert/transformer/layer.0/attention/MatMul_1_output_0: 3d546ba7
/distilbert/transformer/layer.0/attention/Transpose_3_output_0: 3d546ba7
/distilbert/transformer/layer.4/sa_layer_norm/Add_1_output_0: 3ef2e1e4
/distilbert/transformer/layer.4/attention/Softmax_output_0: 3c00fa77
/distilbert/transformer/layer.5/sa_layer_norm/Constant_output_0_output: 3c810204
/classifier/Gemm_output: 3d1bca14
/distilbert/transformer/layer.4/attention/Softmax_output: 3c00fa77
/distilbert/transformer/layer.0/attention/Reshape_3_output_0: 3d546ba7
onnx::MatMul_871_output: 3bbfb64d
ONNXTRT_Broadcast_118_output: 3bbfb64d
/distilbert/transformer/layer.0/attention/out_lin/MatMul_output_0: 3e2c8c6f
distilbert.transformer.layer.0.attention.out_lin.bias_output: 3b8f0b65
ONNXTRT_Broadcast_120_output: 3b8f0b65
/distilbert/transformer/layer.0/attention/out_lin/Add_output_0: 3e3104ca
/distilbert/transformer/layer.0/Add_output_0: 3e71de8b
/distilbert/transformer/layer.0/sa_layer_norm/ReduceMean_output_0: 3a66004d
/distilbert/transformer/layer.0/sa_layer_norm/Sub_output_0: 3e719c4f
/distilbert/transformer/layer.0/sa_layer_norm/Constant_output_0_output: 3c810204
ONNXTRT_Broadcast_122_output: 3c810204
/distilbert/transformer/layer.0/sa_layer_norm/Pow_output_0: 40e23f9c
/distilbert/transformer/layer.0/sa_layer_norm/ReduceMean_1_output_0: 3c864665
/distilbert/transformer/layer.0/sa_layer_norm/Constant_1_output_0_output: 280dd87d
ONNXTRT_Broadcast_124_output: 280dd87d
/distilbert/transformer/layer.0/sa_layer_norm/Add_output_0: 3c864665
/distilbert/transformer/layer.0/sa_layer_norm/Sqrt_output_0: 3c3a21bf
/distilbert/transformer/layer.0/sa_layer_norm/Div_output_0: 3e3a93df
distilbert.transformer.layer.0.sa_layer_norm.weight_output: 3cbf8916
ONNXTRT_Broadcast_126_output: 3cbf8916
/distilbert/transformer/layer.0/sa_layer_norm/Mul_output_0: 3f0a810c
distilbert.transformer.layer.0.sa_layer_norm.bias_output: 3d0ae9b5
ONNXTRT_Broadcast_128_output: 3d0ae9b5
/distilbert/transformer/layer.0/sa_layer_norm/Add_1_output_0: 3f132fa7
onnx::MatMul_872_output: 3b33538b
ONNXTRT_Broadcast_130_output: 3b33538b
/distilbert/transformer/layer.0/ffn/lin1/MatMul_output_0: 3e3785a7
distilbert.transformer.layer.0.ffn.lin1.bias_output: 3b5b6b3f
ONNXTRT_Broadcast_132_output: 3b5b6b3f
/distilbert/transformer/layer.0/ffn/lin1/Add_output_0: 3e39b8c6
/distilbert/transformer/layer.0/ffn/activation/Constant_output_0_output: 3c3671d7
ONNXTRT_Broadcast_134_output: 3c3671d7
/distilbert/transformer/layer.0/ffn/activation/Div_output_0: 3e03533b
/distilbert/transformer/layer.0/ffn/activation/Erf_output_0: 3c010204
/distilbert/transformer/layer.0/ffn/activation/Constant_1_output_0_output: 3c010204
ONNXTRT_Broadcast_136_output: 3c010204
/distilbert/transformer/layer.0/ffn/activation/Add_output_0: 3c810204
/distilbert/transformer/layer.0/ffn/activation/Mul_output_0: 3e9ba64f
/distilbert/transformer/layer.0/ffn/activation/Constant_2_output_0_output: 3b810204
ONNXTRT_Broadcast_138_output: 3b810204
/distilbert/transformer/layer.0/ffn/activation/Mul_1_output_0: 3e1ba64f
onnx::MatMul_873_output: 3c83c6ca
ONNXTRT_Broadcast_140_output: 3c83c6ca
/distilbert/transformer/layer.0/ffn/lin2/MatMul_output_0: 3f0c6dc1
distilbert.transformer.layer.0.ffn.lin2.bias_output: 3b890022
ONNXTRT_Broadcast_142_output: 3b890022
/distilbert/transformer/layer.0/ffn/lin2/Add_output_0: 3f0c9619
/distilbert/transformer/layer.0/Add_1_output_0: 3f1565ea
/distilbert/transformer/layer.0/output_layer_norm/ReduceMean_output_0: 3aa95c12
/distilbert/transformer/layer.0/output_layer_norm/Sub_output_0: 3f1513fd
/distilbert/transformer/layer.0/output_layer_norm/Constant_output_0_output: 3c810204
ONNXTRT_Broadcast_144_output: 3c810204
/distilbert/transformer/layer.0/output_layer_norm/Pow_output_0: 422c454c
/distilbert/transformer/layer.0/output_layer_norm/ReduceMean_1_output_0: 3de07658
/distilbert/transformer/layer.0/output_layer_norm/Constant_1_output_0_output: 280dd87d
ONNXTRT_Broadcast_146_output: 280dd87d
/distilbert/transformer/layer.0/output_layer_norm/Add_output_0: 3de07658
/distilbert/transformer/layer.0/output_layer_norm/Sqrt_output_0: 3cf0a7aa
/distilbert/transformer/layer.0/output_layer_norm/Div_output_0: 3e582aa5
distilbert.transformer.layer.0.output_layer_norm.weight_output: 3bda12c4
ONNXTRT_Broadcast_148_output: 3bda12c4
/distilbert/transformer/layer.0/output_layer_norm/Mul_output_0: 3d868750
distilbert.transformer.layer.0.output_layer_norm.bias_output: 3c33ae61
ONNXTRT_Broadcast_150_output: 3c33ae61
/distilbert/transformer/layer.0/output_layer_norm/Add_1_output_0: 3d9cfd1c
ONNXTRT_Broadcast_598_output: 3bc164b3
/distilbert/transformer/layer.4/attention/Cast_1_output_0: 3a810204
/distilbert/transformer/layer.4/attention/Transpose_2_output_0: 3d7b4662
onnx::MatMul_956_output: 3b81d086
onnx::MatMul_874_output: 3b929238
ONNXTRT_Broadcast_152_output: 3b929238
/distilbert/transformer/layer.1/attention/q_lin/MatMul_output_0: 3db4aecc
distilbert.transformer.layer.1.attention.q_lin.bias_output: 3be573f9
ONNXTRT_Broadcast_154_output: 3be573f9
/distilbert/transformer/layer.1/attention/q_lin/Add_output_0: 3db58f4e
/distilbert/transformer/layer.4/attention/MatMul_output_0: 3e004a01
/distilbert/transformer/layer.4/attention/Div_output_0: 3a810204
ONNXTRT_Broadcast_470_output: 3b3671d7
ONNXTRT_Broadcast_578_output: 3c8a92f7
/distilbert/transformer/layer.4/attention/Sqrt_1_output_0: 3b3671d7
/distilbert/transformer/layer.3/sa_layer_norm/Constant_1_output_0_output: 280dd87d
ONNXTRT_Broadcast_472_output: 3b3671d7
ONNXTRT_Broadcast_519_output: 3988e224
/distilbert/transformer/layer.5/ffn/lin1/Add_output_0: 3e601f9f
/distilbert/transformer/layer.5/ffn/lin2/Add_output_0: 3e64ce9e
/distilbert/transformer/layer.5/sa_layer_norm/Mul_output_0: 3e854231
onnx::MatMul_952_output: 3b670e2e
/distilbert/transformer/layer.4/attention/Sqrt_2_output_0: 3b3671d7
/distilbert/transformer/layer.5/attention/q_lin/Add_output_0: 3d7d18b5
/distilbert/transformer/layer.4/attention/Constant_12_output_0_output: 3c010204
/distilbert/transformer/layer.5/output_layer_norm/Add_output_0: 3d091ada
/distilbert/transformer/layer.4/attention/Sqrt_output_0: 3d810204
/distilbert/transformer/layer.4/attention/Cast_output_0: 3f010204
/distilbert/transformer/layer.1/attention/Reshape_output_0: 3db58f4e
/distilbert/transformer/layer.1/attention/Transpose_output_0: 3db58f4e
onnx::MatMul_884_output: 3b9633cb
ONNXTRT_Broadcast_157_output: 3b9633cb
/distilbert/transformer/layer.1/attention/k_lin/MatMul_output_0: 3da6d2bd
distilbert.transformer.layer.1.attention.k_lin.bias_output: 395f6c87
ONNXTRT_Broadcast_159_output: 395f6c87
/distilbert/transformer/layer.1/attention/k_lin/Add_output_0: 3da6e25d
/distilbert/transformer/layer.1/attention/Reshape_1_output_0: 3da6e25d
onnx::MatMul_885_output: 3b07f5fa
ONNXTRT_Broadcast_162_output: 3b07f5fa
/distilbert/transformer/layer.1/attention/v_lin/MatMul_output_0: 3d3745d0
distilbert.transformer.layer.1.attention.v_lin.bias_output: 3bb48922
ONNXTRT_Broadcast_164_output: 3bb48922
/distilbert/transformer/layer.1/attention/v_lin/Add_output_0: 3d3c291c
/distilbert/transformer/layer.1/attention/Reshape_2_output_0: 3d3c291c
/distilbert/transformer/layer.1/attention/Transpose_1_output_0: 3d3c291c
ONNXTRT_Broadcast_560_output: 3b3671d7
/distilbert/transformer/layer.5/attention/MatMul_output_0: 3df9e033
distilbert.transformer.layer.5.sa_layer_norm.weight_output: 3c463d8f
/distilbert/transformer/layer.3/attention/out_lin/MatMul_output_0: 3dc436c5
ONNXTRT_Broadcast_594_output: 3c810204
/distilbert/transformer/layer.3/sa_layer_norm/Div_output_0: 3e572157
ONNXTRT_Broadcast_603_output: 3816a594
/distilbert/transformer/layer.5/output_layer_norm/Div_output_0: 3e492981
/distilbert/transformer/layer.5/sa_layer_norm/Sqrt_output_0: 3cc72021
/distilbert/transformer/layer.3/attention/out_lin/Add_output_0: 3dadb9d8
ONNXTRT_Broadcast_574_output: 280dd87d
distilbert.transformer.layer.3.sa_layer_norm.bias_output: 3c8bd614
ONNXTRT_Broadcast_388_output: 3b162ce3
/distilbert/transformer/layer.3/sa_layer_norm/ReduceMean_output_0: 39ac5fab
/distilbert/transformer/layer.3/sa_layer_norm/Add_output_0: 3cdded65
/pre_classifier/Gemm_output: 3c9d60ea
/distilbert/transformer/layer.5/ffn/activation/Add_output_0: 3c810204
ONNXTRT_Broadcast_396_output: 3cdfa22e
/distilbert/transformer/layer.5/sa_layer_norm/ReduceMean_1_output_0: 3d99ad32
distilbert.transformer.layer.5.ffn.lin2.bias_output: 3b9656ab
ONNXTRT_Broadcast_584_output: 3c3671d7
distilbert.transformer.layer.3.sa_layer_norm.weight_output: 3cdfa22e
/distilbert/transformer/layer.5/sa_layer_norm/Pow_output_0: 415c4880
ONNXTRT_Broadcast_398_output: 3c8bd614
/distilbert/transformer/layer.3/sa_layer_norm/Add_1_output_0: 3f3ed528
/distilbert/transformer/layer.3/ffn/activation/Div_output_0: 3dd78280
/distilbert/transformer/layer.3/sa_layer_norm/Sqrt_output_0: 3c6f4acc
/distilbert/transformer/layer.3/ffn/lin1/Add_output_0: 3e18636f
/distilbert/transformer/layer.3/sa_layer_norm/Pow_output_0: 40644237
/distilbert/transformer/layer.1/attention/Cast_output_0: 3f010204
/distilbert/transformer/layer.1/attention/Sqrt_output_0: 3d810204
/distilbert/transformer/layer.1/attention/Constant_12_output_0_output: 3c010204
/distilbert/transformer/layer.1/attention/Div_output_0: 3a810204
/distilbert/transformer/layer.1/attention/Cast_1_output_0: 3a810204
/distilbert/transformer/layer.1/attention/Transpose_2_output_0: 3da6e25d
/distilbert/transformer/layer.1/attention/Sqrt_1_output_0: 3b3671d7
ONNXTRT_Broadcast_200_output: 3b3671d7
/distilbert/transformer/layer.1/attention/Mul_output_0: 3d0061d5
/distilbert/transformer/layer.1/attention/Sqrt_2_output_0: 3b3671d7
ONNXTRT_Broadcast_202_output: 3b3671d7
/distilbert/transformer/layer.1/attention/Mul_1_output_0: 3cec028b
/distilbert/transformer/layer.1/attention/MatMul_output_0: 3eae4f94
/distilbert/transformer/layer.1/attention/Add_output_0: 7c010204
/distilbert/transformer/layer.1/attention/Softmax_output: 3c010204
/distilbert/transformer/layer.1/attention/Softmax_output_0: 3c010204
ONNXTRT_Broadcast_402_output: 3b9e91a1
/distilbert/transformer/layer.1/attention/MatMul_1_output_0: 3d1c38b3
/distilbert/transformer/layer.1/attention/Transpose_3_output_0: 3d1c38b3
/distilbert/transformer/layer.4/attention/Mul_output_0: 3cc42621
/distilbert/transformer/layer.3/attention/Softmax_output_0: 3c0101f3
ONNXTRT_Broadcast_400_output: 3b79ba43
distilbert.transformer.layer.3.ffn.lin2.bias_output: 3bc09b00
/distilbert/transformer/layer.5/attention/Sqrt_2_output_0: 3b3671d7
/distilbert/transformer/layer.1/attention/Reshape_3_output_0: 3d1c38b3
onnx::MatMul_888_output: 3b6a7b95
ONNXTRT_Broadcast_208_output: 3b6a7b95
/distilbert/transformer/layer.1/attention/out_lin/MatMul_output_0: 3e353909
distilbert.transformer.layer.1.attention.out_lin.bias_output: 3b5eb03d
ONNXTRT_Broadcast_210_output: 3b5eb03d
/distilbert/transformer/layer.1/attention/out_lin/Add_output_0: 3e350ba0
/distilbert/transformer/layer.1/Add_output_0: 3e69870b
/distilbert/transformer/layer.1/sa_layer_norm/ReduceMean_output_0: 39ec7d00
/distilbert/transformer/layer.1/sa_layer_norm/Sub_output_0: 3e697bdd
/distilbert/transformer/layer.1/sa_layer_norm/Constant_output_0_output: 3c810204
ONNXTRT_Broadcast_212_output: 3c810204
/distilbert/transformer/layer.1/sa_layer_norm/Pow_output_0: 40d348cf
/distilbert/transformer/layer.1/sa_layer_norm/ReduceMean_1_output_0: 3cb7542e
/distilbert/transformer/layer.1/sa_layer_norm/Constant_1_output_0_output: 280dd87d
ONNXTRT_Broadcast_214_output: 280dd87d
/distilbert/transformer/layer.1/sa_layer_norm/Add_output_0: 3cb7542e
/distilbert/transformer/layer.1/sa_layer_norm/Sqrt_output_0: 3c597d57
/distilbert/transformer/layer.1/sa_layer_norm/Div_output_0: 3e396545
distilbert.transformer.layer.1.sa_layer_norm.weight_output: 3c84f709
ONNXTRT_Broadcast_216_output: 3c84f709
/distilbert/transformer/layer.1/sa_layer_norm/Mul_output_0: 3ebf1511
distilbert.transformer.layer.1.sa_layer_norm.bias_output: 3c86d3a4
ONNXTRT_Broadcast_218_output: 3c86d3a4
/distilbert/transformer/layer.1/sa_layer_norm/Add_1_output_0: 3ec7824c
onnx::MatMul_889_output: 3bb176f6
ONNXTRT_Broadcast_220_output: 3bb176f6
/distilbert/transformer/layer.1/ffn/lin1/MatMul_output_0: 3e979007
distilbert.transformer.layer.1.ffn.lin1.bias_output: 3ba60901
ONNXTRT_Broadcast_222_output: 3ba60901
/distilbert/transformer/layer.1/ffn/lin1/Add_output_0: 3e9643d1
/distilbert/transformer/layer.1/ffn/activation/Constant_output_0_output: 3c3671d7
ONNXTRT_Broadcast_224_output: 3c3671d7
/distilbert/transformer/layer.1/ffn/activation/Div_output_0: 3e5481b4
/distilbert/transformer/layer.1/ffn/activation/Erf_output_0: 3c010204
/distilbert/transformer/layer.1/ffn/activation/Constant_1_output_0_output: 3c010204
ONNXTRT_Broadcast_226_output: 3c010204
/distilbert/transformer/layer.1/ffn/activation/Add_output_0: 3c810204
/distilbert/transformer/layer.1/ffn/activation/Mul_output_0: 3f1643d1
/distilbert/transformer/layer.1/ffn/activation/Constant_2_output_0_output: 3b810204
ONNXTRT_Broadcast_228_output: 3b810204
/distilbert/transformer/layer.1/ffn/activation/Mul_1_output_0: 3e9643d1
onnx::MatMul_890_output: 3d022bec
ONNXTRT_Broadcast_230_output: 3d022bec
/distilbert/transformer/layer.1/ffn/lin2/MatMul_output_0: 3fc268c2
distilbert.transformer.layer.1.ffn.lin2.bias_output: 3b1df364
ONNXTRT_Broadcast_232_output: 3b1df364
/distilbert/transformer/layer.1/ffn/lin2/Add_output_0: 3fc27c32
/distilbert/transformer/layer.1/Add_1_output_0: 3fd0bbe8
/distilbert/transformer/layer.1/output_layer_norm/ReduceMean_output_0: 3b19813f
/distilbert/transformer/layer.1/output_layer_norm/Sub_output_0: 3fd06f27
/distilbert/transformer/layer.1/output_layer_norm/Constant_output_0_output: 3c810204
ONNXTRT_Broadcast_234_output: 3c810204
/distilbert/transformer/layer.1/output_layer_norm/Pow_output_0: 43a86167
/distilbert/transformer/layer.1/output_layer_norm/ReduceMean_1_output_0: 3ee8ea18
/distilbert/transformer/layer.1/output_layer_norm/Constant_1_output_0_output: 280dd87d
ONNXTRT_Broadcast_236_output: 280dd87d
/distilbert/transformer/layer.1/output_layer_norm/Add_output_0: 3ee8ea18
/distilbert/transformer/layer.1/output_layer_norm/Sqrt_output_0: 3d7524df
/distilbert/transformer/layer.1/output_layer_norm/Div_output_0: 3e5b60df
distilbert.transformer.layer.1.output_layer_norm.weight_output: 3bf081dd
ONNXTRT_Broadcast_238_output: 3bf081dd
/distilbert/transformer/layer.1/output_layer_norm/Mul_output_0: 3de7db27
distilbert.transformer.layer.1.output_layer_norm.bias_output: 3b250ab0
ONNXTRT_Broadcast_240_output: 3b250ab0
/distilbert/transformer/layer.1/output_layer_norm/Add_1_output_0: 3de7596a
/distilbert/transformer/layer.4/attention/Add_output_0: 7c010204
/distilbert/transformer/layer.4/attention/Mul_1_output_0: 3cb1ad9e
distilbert.transformer.layer.3.ffn.lin1.bias_output: 3b9e91a1
/distilbert/transformer/layer.5/attention/Mul_1_output_0: 3cb3cbf4
onnx::MatMul_891_output: 3b4a102f
ONNXTRT_Broadcast_242_output: 3b4a102f
/distilbert/transformer/layer.2/attention/q_lin/MatMul_output_0: 3d7c359a
distilbert.transformer.layer.2.attention.q_lin.bias_output: 3bc37dca
ONNXTRT_Broadcast_244_output: 3bc37dca
/distilbert/transformer/layer.2/attention/q_lin/Add_output_0: 3d83b325
onnx::MatMul_958_output: 3ccd7dda
onnx::MatMul_941_output: 3d094490
/distilbert/transformer/layer.5/Add_output_0: 3ea8c720
/distilbert/transformer/layer.3/sa_layer_norm/Mul_output_0: 3f3a7678
/distilbert/transformer/layer.5/attention/out_lin/MatMul_output_0: 3e3b5dc2
/distilbert/transformer/layer.5/attention/Cast_1_output_0: 3a810204
/distilbert/transformer/layer.3/ffn/lin1/MatMul_output_0: 3e198641
/distilbert/transformer/layer.4/attention/Reshape_2_output_0: 3d5c5829
/distilbert/transformer/layer.3/ffn/activation/Constant_output_0_output: 3c3671d7
ONNXTRT_Broadcast_568_output: 3b81d086
ONNXTRT_Broadcast_514_output: 3bdde2e0
/distilbert/transformer/layer.4/attention/v_lin/Add_output_0: 3d5c5829
/distilbert/transformer/layer.5/attention/Reshape_2_output_0: 3d9fae8a
ONNXTRT_Broadcast_432_output: 3b04d905
distilbert.transformer.layer.4.attention.v_lin.bias_output: 3b124156
/distilbert/transformer/layer.4/attention/v_lin/MatMul_output_0: 3d5e030b
/distilbert/transformer/layer.5/attention/Reshape_3_output_0: 3d3b9c06
ONNXTRT_Broadcast_486_output: 3ca00005
/distilbert/transformer/layer.2/attention/Reshape_output_0: 3d83b325
/distilbert/transformer/layer.2/attention/Transpose_output_0: 3d83b325
onnx::MatMul_901_output: 3b3e0b54
ONNXTRT_Broadcast_247_output: 3b3e0b54
/distilbert/transformer/layer.2/attention/k_lin/MatMul_output_0: 3d8c0f5b
distilbert.transformer.layer.2.attention.k_lin.bias_output: 3936eae0
ONNXTRT_Broadcast_249_output: 3936eae0
/distilbert/transformer/layer.2/attention/k_lin/Add_output_0: 3d8c5800
/distilbert/transformer/layer.2/attention/Reshape_1_output_0: 3d8c5800
onnx::MatMul_902_output: 3af3f84a
ONNXTRT_Broadcast_252_output: 3af3f84a
/distilbert/transformer/layer.2/attention/v_lin/MatMul_output_0: 3d552360
distilbert.transformer.layer.2.attention.v_lin.bias_output: 3aceacd9
ONNXTRT_Broadcast_254_output: 3aceacd9
/distilbert/transformer/layer.2/attention/v_lin/Add_output_0: 3d54d02c
/distilbert/transformer/layer.2/attention/Reshape_2_output_0: 3d54d02c
/distilbert/transformer/layer.2/attention/Transpose_1_output_0: 3d54d02c
onnx::MatMul_936_output: 3b04d905
ONNXTRT_Broadcast_517_output: 3b670e2e
ONNXTRT_Broadcast_429_output: 3985842e
ONNXTRT_Broadcast_524_output: 3a8b5ac7
/distilbert/transformer/layer.5/sa_layer_norm/Constant_1_output_0_output: 280dd87d
/Gather_output_0: 3d65b4c8
/distilbert/transformer/layer.5/sa_layer_norm/Div_output_0: 3e2d709e
/distilbert/transformer/layer.5/ffn/activation/Constant_2_output_0_output: 3b810204
distilbert.transformer.layer.4.attention.k_lin.bias_output: 3985842e
/distilbert/transformer/layer.4/attention/k_lin/MatMul_output_0: 3d7b6bc7
/distilbert/transformer/layer.4/attention/Reshape_1_output_0: 3d7b4662
/distilbert/transformer/layer.5/attention/MatMul_1_output_0: 3d3b9c06
ONNXTRT_Broadcast_427_output: 3bab7419
/distilbert/transformer/layer.4/attention/k_lin/Add_output_0: 3d7b4662
onnx::MatMul_935_output: 3bab7419
/distilbert/transformer/layer.4/attention/Transpose_output_0: 3d8ab2c1
distilbert.transformer.layer.5.sa_layer_norm.bias_output: 3c8a92f7
classifier.bias_output: 35c7e743
/distilbert/transformer/layer.3/ffn/activation/Erf_output_0: 3c010204
/distilbert/transformer/layer.5/attention/Softmax_output_0: 3c00f010
ONNXTRT_Broadcast_390_output: 3c33e76b
onnx::MatMul_924_output: 3ccad1ba
ONNXTRT_Broadcast_404_output: 3c3671d7
/distilbert/transformer/layer.3/Add_output_0: 3e2bab30
/distilbert/transformer/layer.3/ffn/activation/Constant_1_output_0_output: 3c010204
/distilbert/transformer/layer.5/sa_layer_norm/Add_output_0: 3d99ad32
/distilbert/transformer/layer.4/attention/Reshape_output_0: 3d8ab2c1
/distilbert/transformer/layer.3/ffn/lin2/MatMul_output_0: 3decbd7c
/distilbert/transformer/layer.5/output_layer_norm/Constant_1_output_0_output: 280dd87d
/distilbert/transformer/layer.2/attention/Cast_output_0: 3f010204
/distilbert/transformer/layer.2/attention/Sqrt_output_0: 3d810204
/distilbert/transformer/layer.2/attention/Constant_12_output_0_output: 3c010204
/distilbert/transformer/layer.2/attention/Div_output_0: 3a810204
/distilbert/transformer/layer.2/attention/Cast_1_output_0: 3a810204
/distilbert/transformer/layer.2/attention/Transpose_2_output_0: 3d8c5800
/distilbert/transformer/layer.2/attention/Sqrt_1_output_0: 3b3671d7
ONNXTRT_Broadcast_290_output: 3b3671d7
/distilbert/transformer/layer.2/attention/Mul_output_0: 3cba406b
/distilbert/transformer/layer.2/attention/Sqrt_2_output_0: 3b3671d7
ONNXTRT_Broadcast_292_output: 3b3671d7
/distilbert/transformer/layer.2/attention/Mul_1_output_0: 3cc679dd
/distilbert/transformer/layer.2/attention/MatMul_output_0: 3e1f3f20
/distilbert/transformer/layer.2/attention/Add_output_0: 7c010204
/distilbert/transformer/layer.2/attention/Softmax_output: 3c01013b
/distilbert/transformer/layer.2/attention/Softmax_output_0: 3c01013b
/distilbert/transformer/layer.3/ffn/activation/Add_output_0: 3c810204
ONNXTRT_Broadcast_406_output: 3c010204
/distilbert/transformer/layer.2/attention/MatMul_1_output_0: 3d27aea2
/distilbert/transformer/layer.2/attention/Transpose_3_output_0: 3d27aea2
ONNXTRT_Broadcast_392_output: 3c810204
distilbert.transformer.layer.5.attention.v_lin.bias_output: 3a8b5ac7
/distilbert/transformer/layer.5/attention/Cast_output_0: 3f010204
/distilbert/transformer/layer.5/sa_layer_norm/ReduceMean_output_0: 3a32d402
onnx::MatMul_940_output: 3be4066d
/distilbert/transformer/layer.2/attention/Reshape_3_output_0: 3d27aea2
onnx::MatMul_905_output: 3b3531b8
ONNXTRT_Broadcast_298_output: 3b3531b8
/distilbert/transformer/layer.2/attention/out_lin/MatMul_output_0: 3d851026
distilbert.transformer.layer.2.attention.out_lin.bias_output: 3b714b3d
ONNXTRT_Broadcast_300_output: 3b714b3d
/distilbert/transformer/layer.2/attention/out_lin/Add_output_0: 3d7b0b99
/distilbert/transformer/layer.2/Add_output_0: 3e03e652
/distilbert/transformer/layer.2/sa_layer_norm/ReduceMean_output_0: 39afa1aa
/distilbert/transformer/layer.2/sa_layer_norm/Sub_output_0: 3e03d0b6
/distilbert/transformer/layer.2/sa_layer_norm/Constant_output_0_output: 3c810204
ONNXTRT_Broadcast_302_output: 3c810204
/distilbert/transformer/layer.2/sa_layer_norm/Pow_output_0: 4006af0d
/distilbert/transformer/layer.2/sa_layer_norm/ReduceMean_1_output_0: 3c808d97
/distilbert/transformer/layer.2/sa_layer_norm/Constant_1_output_0_output: 280dd87d
ONNXTRT_Broadcast_304_output: 280dd87d
/distilbert/transformer/layer.2/sa_layer_norm/Add_output_0: 3c808d97
/distilbert/transformer/layer.2/sa_layer_norm/Sqrt_output_0: 3c361f71
/distilbert/transformer/layer.2/sa_layer_norm/Div_output_0: 3e58ddba
distilbert.transformer.layer.2.sa_layer_norm.weight_output: 3cfb3f56
ONNXTRT_Broadcast_306_output: 3cfb3f56
/distilbert/transformer/layer.2/sa_layer_norm/Mul_output_0: 3f532d5f
distilbert.transformer.layer.2.sa_layer_norm.bias_output: 3c2b39a7
ONNXTRT_Broadcast_308_output: 3c2b39a7
/distilbert/transformer/layer.2/sa_layer_norm/Add_1_output_0: 3f55abce
onnx::MatMul_906_output: 3c1ab72c
ONNXTRT_Broadcast_310_output: 3c1ab72c
/distilbert/transformer/layer.2/ffn/lin1/MatMul_output_0: 3ee29d3c
distilbert.transformer.layer.2.ffn.lin1.bias_output: 3b895317
ONNXTRT_Broadcast_312_output: 3b895317
/distilbert/transformer/layer.2/ffn/lin1/Add_output_0: 3ee106e8
/distilbert/transformer/layer.2/ffn/activation/Constant_output_0_output: 3c3671d7
ONNXTRT_Broadcast_314_output: 3c3671d7
/distilbert/transformer/layer.2/ffn/activation/Div_output_0: 3e9f1e3b
/distilbert/transformer/layer.2/ffn/activation/Erf_output_0: 3c010204
/distilbert/transformer/layer.2/ffn/activation/Constant_1_output_0_output: 3c010204
ONNXTRT_Broadcast_316_output: 3c010204
/distilbert/transformer/layer.2/ffn/activation/Add_output_0: 3c810204
/distilbert/transformer/layer.2/ffn/activation/Mul_output_0: 3eca3d91
/distilbert/transformer/layer.2/ffn/activation/Constant_2_output_0_output: 3b810204
ONNXTRT_Broadcast_318_output: 3b810204
/distilbert/transformer/layer.2/ffn/activation/Mul_1_output_0: 3e4a3d91
onnx::MatMul_907_output: 3da0c4a2
ONNXTRT_Broadcast_320_output: 3da0c4a2
/distilbert/transformer/layer.2/ffn/lin2/MatMul_output_0: 3fff0007
distilbert.transformer.layer.2.ffn.lin2.bias_output: 3b24f8f7
ONNXTRT_Broadcast_322_output: 3b24f8f7
/distilbert/transformer/layer.2/ffn/lin2/Add_output_0: 3fff140c
/distilbert/transformer/layer.2/Add_1_output_0: 4034de88
/distilbert/transformer/layer.2/output_layer_norm/ReduceMean_output_0: 3b6d2bef
/distilbert/transformer/layer.2/output_layer_norm/Sub_output_0: 4034a33d
/distilbert/transformer/layer.2/output_layer_norm/Constant_output_0_output: 3c810204
ONNXTRT_Broadcast_324_output: 3c810204
/distilbert/transformer/layer.2/output_layer_norm/Pow_output_0: 447cee15
/distilbert/transformer/layer.2/output_layer_norm/ReduceMean_1_output_0: 3fa8dc12
/distilbert/transformer/layer.2/output_layer_norm/Constant_1_output_0_output: 280dd87d
ONNXTRT_Broadcast_326_output: 280dd87d
/distilbert/transformer/layer.2/output_layer_norm/Add_output_0: 3fa8dc12
/distilbert/transformer/layer.2/output_layer_norm/Sqrt_output_0: 3dd0bb06
/distilbert/transformer/layer.2/output_layer_norm/Div_output_0: 3e5f4a3b
distilbert.transformer.layer.2.output_layer_norm.weight_output: 3bf29f96
ONNXTRT_Broadcast_328_output: 3bf29f96
/distilbert/transformer/layer.2/output_layer_norm/Mul_output_0: 3de30bf7
distilbert.transformer.layer.2.output_layer_norm.bias_output: 3b065b36
ONNXTRT_Broadcast_330_output: 3b065b36
/distilbert/transformer/layer.2/output_layer_norm/Add_1_output_0: 3ddfb7d2
ONNXTRT_Broadcast_434_output: 3b124156
/distilbert/transformer/layer.4/attention/Transpose_3_output_0: 3d50d1ce
/distilbert/transformer/layer.5/ffn/activation/Erf_output_0: 3c010204
ONNXTRT_Broadcast_506_output: 280dd87d
onnx::MatMul_908_output: 3b1cae7b
ONNXTRT_Broadcast_332_output: 3b1cae7b
/distilbert/transformer/layer.3/attention/q_lin/MatMul_output_0: 3d84e131
distilbert.transformer.layer.3.attention.q_lin.bias_output: 3bf6811b
ONNXTRT_Broadcast_334_output: 3bf6811b
/distilbert/transformer/layer.3/attention/q_lin/Add_output_0: 3d8f0ae1
/distilbert/transformer/layer.5/output_layer_norm/Add_1_output_0: 3daf0e89
distilbert.transformer.layer.4.attention.out_lin.bias_output: 3ba3ef1c
/distilbert/transformer/layer.5/output_layer_norm/Mul_output_0: 3db44266
/distilbert/transformer/layer.5/attention/Transpose_3_output_0: 3d3b9c06
ONNXTRT_Broadcast_570_output: 3ac43ab2
/distilbert/transformer/layer.3/ffn/activation/Mul_1_output_0: 3d970408
ONNXTRT_Broadcast_588_output: 3b810204
/distilbert/transformer/layer.4/attention/q_lin/Add_output_0: 3d8ab2c1
/distilbert/transformer/layer.5/attention/Div_output_0: 3a810204
distilbert.transformer.layer.3.output_layer_norm.weight_output: 3c14b40d
logits: 3d1bcba4
ONNXTRT_Broadcast_424_output: 3bd308df
/distilbert/transformer/layer.5/attention/Softmax_output: 3c00f010
onnx::MatMul_925_output: 3b0554d7
distilbert.transformer.layer.4.attention.q_lin.bias_output: 3bd308df
/distilbert/transformer/layer.5/attention/Add_output_0: 7c010204
/distilbert/transformer/layer.4/attention/q_lin/MatMul_output_0: 3d82b03a
distilbert.transformer.layer.3.attention.out_lin.bias_output: 3c33e76b
/distilbert/transformer/layer.3/attention/Reshape_output_0: 3d8f0ae1
/distilbert/transformer/layer.3/attention/Transpose_output_0: 3d8f0ae1
onnx::MatMul_918_output: 3b76bbb8
ONNXTRT_Broadcast_337_output: 3b76bbb8
/distilbert/transformer/layer.3/attention/k_lin/MatMul_output_0: 3d9701bc
distilbert.transformer.layer.3.attention.k_lin.bias_output: 39307b1d
ONNXTRT_Broadcast_339_output: 39307b1d
/distilbert/transformer/layer.3/attention/k_lin/Add_output_0: 3d96f8ca
/distilbert/transformer/layer.3/attention/Reshape_1_output_0: 3d96f8ca
onnx::MatMul_919_output: 3b2b8d02
ONNXTRT_Broadcast_342_output: 3b2b8d02
/distilbert/transformer/layer.3/attention/v_lin/MatMul_output_0: 3d7358e2
distilbert.transformer.layer.3.attention.v_lin.bias_output: 3b1b8e84
ONNXTRT_Broadcast_344_output: 3b1b8e84
/distilbert/transformer/layer.3/attention/v_lin/Add_output_0: 3d750ea3
/distilbert/transformer/layer.3/attention/Reshape_2_output_0: 3d750ea3
/distilbert/transformer/layer.3/attention/Transpose_1_output_0: 3d750ea3
/distilbert/transformer/layer.4/ffn/activation/Constant_output_0_output: 3c3671d7
/distilbert/transformer/layer.5/sa_layer_norm/Sub_output_0: 3ea893c3
/distilbert/transformer/layer.5/sa_layer_norm/Add_1_output_0: 3e8deb61
/distilbert/transformer/layer.3/ffn/activation/Constant_2_output_0_output: 3b810204
ONNXTRT_Broadcast_562_output: 3b3671d7
/distilbert/transformer/layer.3/output_layer_norm/Constant_1_output_0_output: 280dd87d
/distilbert/transformer/layer.3/output_layer_norm/Add_1_output_0: 3e206657
distilbert.transformer.layer.3.output_layer_norm.bias_output: 3bf77ac6
ONNXTRT_Broadcast_408_output: 3b810204
/distilbert/transformer/layer.3/output_layer_norm/Mul_output_0: 3e28222c
/distilbert/transformer/layer.3/ffn/activation/Mul_output_0: 3e170408
ONNXTRT_Broadcast_418_output: 3c14b40d
/distilbert/transformer/layer.5/output_layer_norm/Sub_output_0: 3e8cc900
/distilbert/transformer/layer.3/attention/Add_output_0: 7c010204
/distilbert/transformer/layer.3/output_layer_norm/Div_output_0: 3e5efbe5
/distilbert/transformer/layer.3/output_layer_norm/Sqrt_output_0: 3cfc8b6e
/distilbert/transformer/layer.3/output_layer_norm/Pow_output_0: 42b85ae1
ONNXTRT_Broadcast_414_output: 3c810204
/distilbert/transformer/layer.3/output_layer_norm/ReduceMean_1_output_0: 3df73087
/distilbert/transformer/layer.3/output_layer_norm/Constant_output_0_output: 3c810204
/distilbert/transformer/layer.3/output_layer_norm/Sub_output_0: 3f5a18f2
/distilbert/transformer/layer.5/attention/v_lin/MatMul_output_0: 3d9f56f5
ONNXTRT_Broadcast_416_output: 280dd87d
/distilbert/transformer/layer.3/output_layer_norm/ReduceMean_output_0: 3a956eb9
/distilbert/transformer/layer.3/Add_1_output_0: 3f5a63a9
/distilbert/transformer/layer.5/output_layer_norm/Pow_output_0: 4119a339
/distilbert/transformer/layer.3/output_layer_norm/Add_output_0: 3df73087
distilbert.transformer.layer.5.output_layer_norm.bias_output: 3b3d6edc
/distilbert/transformer/layer.3/ffn/lin2/Add_output_0: 3df8c72c
/distilbert/transformer/layer.3/attention/Cast_output_0: 3f010204
/distilbert/transformer/layer.3/attention/Sqrt_output_0: 3d810204
/distilbert/transformer/layer.3/attention/Constant_12_output_0_output: 3c010204
/distilbert/transformer/layer.3/attention/Div_output_0: 3a810204
/distilbert/transformer/layer.3/attention/Cast_1_output_0: 3a810204
/distilbert/transformer/layer.3/attention/Transpose_2_output_0: 3d96f8ca
/distilbert/transformer/layer.3/attention/Sqrt_1_output_0: 3b3671d7
ONNXTRT_Broadcast_380_output: 3b3671d7
/distilbert/transformer/layer.3/attention/Mul_output_0: 3cca4aea
/distilbert/transformer/layer.3/attention/Sqrt_2_output_0: 3b3671d7
ONNXTRT_Broadcast_382_output: 3b3671d7
/distilbert/transformer/layer.3/attention/Mul_1_output_0: 3cd581a3
